#define SINGLE_FILE
/**
  ******************************************************************************
  * @file    defines.hh
  * @author  Pierre-Emmanuel Novac <penovac@unice.fr>, Université Côte d'Azur, LEAT, France
  * @version 2.1.0
  * @date    10 january 2024
  * @brief   Global C pre-processor definitions to use to build all source files (incl. CMSIS-NN)
  */

/* CMSIS-NN round mode definition */
#if defined(WITH_CMSIS_NN) || defined(WITH_NMSIS_NN)



#error "Unrecognized round mode, only floor and nearest are supported by CMSIS-NN"

#endif // defined(WITH_CMSIS_NN) || defined(WITH_NMSIS_NN)
/**
  ******************************************************************************
  * @file    number.hh
  * @author  Pierre-Emmanuel Novac <penovac@unice.fr>, LEAT, CNRS, Université Côte d'Azur, France
  * @version 1.0.0
  * @date    2 february 2021
  * @brief   Template generating plain C code for the implementation of Convolutional Neural Networks on MCU
  */

#ifdef __cplusplus
extern "C" {
#endif

#ifndef __NUMBER_H__
#define __NUMBER_H__

#include <stdint.h>
#include <stddef.h>
#include <math.h>

#ifdef TRAPV_SHIFT
#include <limits.h>
#include <stdio.h>
#include <assert.h>
#endif

#ifdef WITH_CMSIS_NN
#include "arm_nnfunctions.h"
#endif

#define _clamp_to(type, number) clamp_to_number_t_ ## type (number)
#define clamp_to(type, number) _clamp_to(type, number)
#define _scale(type, number, scale_factor, round_mode) scale_number_t_ ## type (number, scale_factor, round_mode)
#define scale(type, number, scale_factor, round_mode) _scale(type, number, scale_factor, round_mode)
#define _scale_and_clamp_to(type, number, scale_factor, round_mode) scale_and_clamp_to_number_t_ ## type (number, scale_factor, round_mode)
#define scale_and_clamp_to(type, number, scale_factor, round_mode) _scale_and_clamp_to(type, number, scale_factor, round_mode)

typedef enum {
  ROUND_MODE_NONE,
  ROUND_MODE_FLOOR,
  ROUND_MODE_NEAREST,
} round_mode_t;

// Idea 1: Write the smallest min max interval of the net, could be an issue for hybrid int type network
// Idea 2: listing any interval and add type in name in a switch case like <- better but painfull
// #define NUMBER_MIN		// Max value for this numeric type
// #define NUMBER_MAX		// Min value for this numeric type

// // Idea 1: List of all types and write any corresponding function 
// typedef  number_t;		// Standard size numeric type used for weights and activations
// typedef  long_number_t;	// Long numeric type used for intermediate results

#define NUMBER_MIN_FLOAT -2147483648
#define NUMBER_MAX_FLOAT 2147483647

static inline float min_float(
    float a,
    float b) {
	if (a <= b)
		return a;
	return b;
}

static inline float max_float(
    float a,
    float b) {
	if (a >= b)
		return a;
	return b;
}

static inline float scale_number_t_float(
  float number, int scale_factor, round_mode_t round_mode) {
	return number;
}
static inline float clamp_to_number_t_float(
  float number) {
	return (float) number;
}
static inline float scale_and_clamp_to_number_t_float(
  float number, int scale_factor, round_mode_t round_mode) {
	return (float) number;
}


#define NUMBER_MIN_INT32_T -2147483648
#define NUMBER_MAX_INT32_T 2147483647

static inline int64_t min_int32_t(
    int64_t a,
    int64_t b) {
	if (a <= b)
		return a;
	return b;
}

static inline int64_t max_int32_t(
    int64_t a,
    int64_t b) {
	if (a >= b)
		return a;
	return b;
}

static inline int64_t scale_number_t_int32_t(
  int64_t number, int scale_factor, round_mode_t round_mode) {


  if (scale_factor <= 0) {
#ifdef TRAPV_SHIFT
    // Check for possible overflow of left shift
    if (number > INT64_MAX >> -scale_factor) {
      fprintf(stderr,
              "Error: scale() overflow, number=%ld, scale_factor=%d, limit=%d\n",
              number,
              scale_factor,
              INT16_MAX >> -scale_factor);
      assert(number <= INT64_MAX >> -scale_factor);
    }
#endif
    // No rounding to apply when shifting left
    return number << - scale_factor;
  } else {
    if (round_mode == ROUND_MODE_NEAREST) {
      number += (1 << (scale_factor - 1)); // +0.5 in fixed-point
    }
    return number >> scale_factor;
  }
}
static inline int32_t clamp_to_number_t_int32_t(
  int64_t number) {
	return (int32_t) max_int32_t(
      NUMBER_MIN_INT32_T,
      min_int32_t(
        NUMBER_MAX_INT32_T, number));
}
static inline int32_t scale_and_clamp_to_number_t_int32_t(
  int64_t number, int scale_factor, round_mode_t round_mode) {
#ifdef WITH_CMSIS_NN
  // Not really CMSIS-NN but use SSAT anyway
  if (scale_factor <= 0) {
    // No rounding to apply when shifting left
    return __SSAT(number << - scale_factor, sizeof(int32_t) * 8);
  } else {
    if (round_mode == ROUND_MODE_NEAREST) {
      number += (1 << (scale_factor - 1)); // +0.5 in fixed-point
    }
    return __SSAT(number >> scale_factor, sizeof(int32_t) * 8);
  }
#else
  number = scale_number_t_int32_t(number, scale_factor, round_mode);
  return clamp_to_number_t_int32_t(number);
#endif
}




static inline void int64_t_to_float(int64_t * tabint, float * tabfloat, long tabdim, int scale_factor){
  for (int i=0; i<tabdim; i++){
    tabfloat[i] = (float)tabint[i] / (1<<scale_factor);
  }
}

static inline void int32_t_to_float(int32_t * tabint, float * tabfloat, long tabdim, int scale_factor){
  for (int i=0; i<tabdim; i++){
    tabfloat[i] = (float)tabint[i] / (1<<scale_factor);
  }
}

static inline void int16_t_to_float(int16_t * tabint, float * tabfloat, long tabdim, int scale_factor){
  for (int i=0; i<tabdim; i++){
    tabfloat[i] = ((float)tabint[i]) / (1<<scale_factor);
  }
}

static inline void int8_t_to_float(int8_t * tabint, float * tabfloat, long tabdim, int scale_factor){
  for (int i=0; i<tabdim; i++){
    tabfloat[i] = ((float)tabint[i]) / (1<<scale_factor);
  }
}
#endif //__NUMBER_H__

#ifdef __cplusplus
} // extern "C"
#endif
/**
  ******************************************************************************
  * @file    conv1d.hh
  * @author  Pierre-Emmanuel Novac <penovac@unice.fr>, LEAT, CNRS, Université Côte d'Azur, France
  * @version V2.0
  * @date    24 january 2023
  * @brief   Template generating plain C code for the implementation of Convolutional Neural Networks on MCU
  */

#ifndef _CONV1D_108_H_
#define _CONV1D_108_H_

#ifndef SINGLE_FILE
#include "number.h"
#endif

#define INPUT_CHANNELS      1
#define INPUT_SAMPLES       500
#define CONV_FILTERS        16
#define CONV_KERNEL_SIZE    80
#define CONV_STRIDE         1

#define ZEROPADDING_LEFT    0
#define ZEROPADDING_RIGHT   0

#define CONV_OUTSAMPLES     ( ( (INPUT_SAMPLES - CONV_KERNEL_SIZE + ZEROPADDING_LEFT + ZEROPADDING_RIGHT) / CONV_STRIDE ) + 1 )

typedef float conv1d_108_output_type[CONV_OUTSAMPLES][CONV_FILTERS];

#if 0
void conv1d_108(
  const number_t input[INPUT_SAMPLES][INPUT_CHANNELS],                    // IN
  const number_t kernel[CONV_FILTERS][CONV_KERNEL_SIZE][INPUT_CHANNELS],  // IN

  const number_t bias[CONV_FILTERS],						                          // IN

  number_t output[CONV_OUTSAMPLES][CONV_FILTERS]);                       // OUT
#endif

#undef INPUT_CHANNELS
#undef INPUT_SAMPLES
#undef CONV_FILTERS
#undef CONV_KERNEL_SIZE
#undef CONV_STRIDE
#undef ZEROPADDING_LEFT
#undef ZEROPADDING_RIGHT
#undef CONV_OUTSAMPLES

#endif//_CONV1D_108_H_
/**
  ******************************************************************************
  * @file    conv.cc
  * @author  Sébastien Bilavarn, LEAT, CNRS, Université Côte d'Azur, France
  * @author  Pierre-Emmanuel Novac <penovac@unice.fr>, LEAT, CNRS, Université Côte d'Azur, France
  * @version V2.0
  * @date    24 march 2020
  * @brief   Template generating plain C code for the implementation of Convolutional Neural Networks on MCU
  */

#ifndef SINGLE_FILE
#include "conv1d_108.h"
#include "number.h"
#endif

#ifdef WITH_CMSIS_NN
#include "arm_nnfunctions.h"
#elif defined(WITH_NMSIS_NN)
#include "riscv_nnfunctions.h"
#endif

#define INPUT_CHANNELS      1
#define INPUT_SAMPLES       500
#define CONV_FILTERS        16
#define CONV_KERNEL_SIZE    80
#define CONV_STRIDE         1
#define CONV_GROUPS         1
#define CHANNELS_PER_GROUP  (INPUT_CHANNELS / CONV_GROUPS)
#define FILTERS_PER_GROUP   (CONV_FILTERS / CONV_GROUPS)

#define ZEROPADDING_LEFT    0
#define ZEROPADDING_RIGHT   0

#define CONV_OUTSAMPLES     ( ( (INPUT_SAMPLES - CONV_KERNEL_SIZE + ZEROPADDING_LEFT + ZEROPADDING_RIGHT) / CONV_STRIDE ) + 1 )

#define ACTIVATION_RELU

// For fixed point quantization
#define WEIGHTS_SCALE_FACTOR 0
#define BIASES_SCALE_FACTOR 0
#define TMP_SCALE_FACTOR 0
#define INPUT_SCALE_FACTOR 0
#define OUTPUT_SCALE_FACTOR 0
#define OUTPUT_ROUND_MODE ROUND_MODE_NONE
#define NUMBER_T float
#define LONG_NUMBER_T float


static inline void conv1d_108(
  const NUMBER_T input[INPUT_SAMPLES][INPUT_CHANNELS],                    // IN
  const NUMBER_T kernel[CONV_FILTERS][CONV_KERNEL_SIZE][INPUT_CHANNELS / CONV_GROUPS],  // IN

  const NUMBER_T bias[CONV_FILTERS],						                          // IN

  NUMBER_T output[CONV_OUTSAMPLES][CONV_FILTERS]) {                       // OUT

#if !defined(WITH_CMSIS_NN) && !defined(WITH_NMSIS_NN)
  unsigned short pos_x, z, k; 	// loop indexes for output volume
  unsigned short x;
  int input_x;
  LONG_NUMBER_T output_acc;

  for (pos_x = 0; pos_x < CONV_OUTSAMPLES; pos_x++) { 
    for (k = 0; k < CONV_FILTERS; k++) { 
      output_acc = 0;

      for (x = 0; x < CONV_KERNEL_SIZE; x++) {
        input_x = pos_x * CONV_STRIDE - ZEROPADDING_LEFT + x;

        if (input_x >= 0 && input_x < INPUT_SAMPLES) { // ZeroPadding1D
          for (z = 0; z < INPUT_CHANNELS / CONV_GROUPS; z++) {
            output_acc += (LONG_NUMBER_T)input[input_x][z + (k / FILTERS_PER_GROUP) * CHANNELS_PER_GROUP] * (LONG_NUMBER_T)kernel[k][x][z];
          }
        }
      }

    // Scale for possible additional precision of bias
    output_acc = scale(NUMBER_T, output_acc, WEIGHTS_SCALE_FACTOR - TMP_SCALE_FACTOR, OUTPUT_ROUND_MODE);

    // Scale bias to match accumulator
    output_acc += scale(NUMBER_T, (LONG_NUMBER_T)bias[k], BIASES_SCALE_FACTOR - TMP_SCALE_FACTOR - INPUT_SCALE_FACTOR, OUTPUT_ROUND_MODE);

      
#ifdef ACTIVATION_LINEAR
      output[pos_x][k] = scale_and_clamp_to(NUMBER_T, output_acc, INPUT_SCALE_FACTOR + TMP_SCALE_FACTOR - OUTPUT_SCALE_FACTOR, OUTPUT_ROUND_MODE);
#elif defined(ACTIVATION_RELU) || defined(ACTIVATION_RELU6)
      // Activation function: ReLU
      if (output_acc < 0) {
        output[pos_x][k] = 0;
      } else {
#if defined(ACTIVATION_RELU6)
        if (output_acc > scale(NUMBER_T, 6, -(INPUT_SCALE_FACTOR + TMP_SCALE_FACTOR), OUTPUT_ROUND_MODE)) {
          output_acc = scale(NUMBER_T, 6, -(INPUT_SCALE_FACTOR + TMP_SCALE_FACTOR), OUTPUT_ROUND_MODE);
        }
#endif
        output[pos_x][k] = scale_and_clamp_to(NUMBER_T, output_acc, INPUT_SCALE_FACTOR + TMP_SCALE_FACTOR - OUTPUT_SCALE_FACTOR, OUTPUT_ROUND_MODE);
      }
#else
#error "Unsupported activation function"
#endif
    }
  }

#else

#if BIASES_SCALE_FACTOR > WEIGHTS_SCALE_FACTOR
#error "CMSIS-NN does not support BIASES_SCALE_FACTOR larger than WEIGHTS_SCALE_FACTOR"
#endif

#error "Data type unsupported by CMSIS-NN"

#endif
}

#undef INPUT_CHANNELS
#undef INPUT_SAMPLES
#undef CONV_FILTERS
#undef CONV_KERNEL_SIZE
#undef CONV_STRIDE
#undef CONV_GROUPS
#undef CHANNELS_PER_GROUP
#undef FILTERS_PER_GROUP
#undef ZEROPADDING_LEFT
#undef ZEROPADDING_RIGHT
#undef CONV_OUTSAMPLES
#undef ACTIVATION_RELU
#undef WEIGHTS_SCALE_FACTOR
#undef BIASES_SCALE_FACTOR
#undef TMP_SCALE_FACTOR
#undef INPUT_SCALE_FACTOR
#undef OUTPUT_SCALE_FACTOR
#undef NUMBER_T
#undef LONG_NUMBER_T
/**
  ******************************************************************************
  * @file    weights/conv1d.cc
  * @author  Pierre-Emmanuel Novac <penovac@unice.fr>, LEAT, CNRS, Université Côte d'Azur, France
  * @version 1.0.0
  * @date    24 march 2020
  * @brief   Template generating plain C code for the implementation of Convolutional Neural Networks on MCU
  */

#include <stdint.h>

#define INPUT_CHANNELS    1
#define CONV_FILTERS      16
#define CONV_KERNEL_SIZE  80
#define CONV_GROUPS       1


const float  conv1d_108_bias[CONV_FILTERS] = {0x1.473cc80000000p-5, 0x1.0a56800000000p-6, 0x1.8c47e00000000p-10, -0x1.7d6e1a0000000p-8, -0x1.d97a2c0000000p-7, 0x1.6b217e0000000p-8, 0x1.3e9b320000000p-7, 0x1.c606360000000p-7, 0x1.daa6d80000000p-6, 0x1.d67ee60000000p-7, 0x1.662dba0000000p-11, 0x1.60fe540000000p-6, 0x1.c1ff820000000p-8, 0x1.407fee0000000p-6, 0x1.0c79300000000p-7, 0x1.aa8fe60000000p-6}
;

const float  conv1d_108_kernel[CONV_FILTERS][CONV_KERNEL_SIZE][INPUT_CHANNELS / CONV_GROUPS] = {{{-0x1.37aee80000000p-7}
, {0x1.e438560000000p-9}
, {-0x1.f3187a0000000p-8}
, {0x1.6101500000000p-11}
, {0x1.5de3740000000p-6}
, {-0x1.664a800000000p-6}
, {0x1.768d3e0000000p-6}
, {0x1.1254ce0000000p-4}
, {-0x1.a937c60000000p-8}
, {0x1.4b59300000000p-5}
, {0x1.114c580000000p-4}
, {-0x1.e39c880000000p-5}
, {-0x1.8309960000000p-4}
, {0x1.244bfc0000000p-5}
, {-0x1.4b854e0000000p-6}
, {-0x1.efa4920000000p-8}
, {-0x1.f28f840000000p-10}
, {-0x1.ec554c0000000p-8}
, {0x1.1973d80000000p-4}
, {0x1.efbff20000000p-5}
, {0x1.80a97e0000000p-6}
, {-0x1.1532ea0000000p-5}
, {-0x1.c69ade0000000p-6}
, {-0x1.130f900000000p-4}
, {-0x1.a31d100000000p-8}
, {-0x1.6987a40000000p-5}
, {-0x1.31567c0000000p-4}
, {-0x1.2e104c0000000p-6}
, {-0x1.9e9e840000000p-11}
, {-0x1.bd3a180000000p-5}
, {0x1.4b8d900000000p-5}
, {0x1.9e561c0000000p-6}
, {-0x1.52223a0000000p-6}
, {0x1.9b6fa60000000p-6}
, {0x1.677c460000000p-5}
, {0x1.e7fbf60000000p-5}
, {0x1.58fb740000000p-6}
, {-0x1.2ac4ae0000000p-7}
, {0x1.8df6760000000p-9}
, {-0x1.b4937e0000000p-6}
, {-0x1.07e9e00000000p-7}
, {-0x1.0296620000000p-8}
, {0x1.ed3acc0000000p-5}
, {0x1.b3cb780000000p-5}
, {-0x1.744c300000000p-6}
, {0x1.549e120000000p-5}
, {0x1.816f240000000p-5}
, {-0x1.0b4e6a0000000p-4}
, {-0x1.54cfce0000000p-5}
, {-0x1.48cb600000000p-5}
, {-0x1.aa1df20000000p-4}
, {0x1.f1ccba0000000p-5}
, {-0x1.2046040000000p-5}
, {-0x1.2194940000000p-5}
, {0x1.38ba4e0000000p-4}
, {0x1.0435960000000p-4}
, {0x1.bf98b60000000p-5}
, {0x1.25d9340000000p-4}
, {-0x1.fc15ec0000000p-7}
, {-0x1.29b1000000000p-6}
, {0x1.eef5360000000p-6}
, {0x1.db4ce20000000p-6}
, {-0x1.d20a580000000p-6}
, {-0x1.090a9a0000000p-6}
, {0x1.307a1c0000000p-4}
, {-0x1.07d3500000000p-8}
, {0x1.6e60fa0000000p-5}
, {-0x1.fd6d4e0000000p-10}
, {-0x1.a2fac60000000p-8}
, {0x1.d8694a0000000p-5}
, {0x1.2956120000000p-6}
, {-0x1.c401460000000p-5}
, {0x1.c910ba0000000p-7}
, {0x1.c050420000000p-7}
, {0x1.098ba40000000p-5}
, {-0x1.55993c0000000p-5}
, {-0x1.a942d20000000p-5}
, {-0x1.2ad1a20000000p-4}
, {-0x1.fa1cc60000000p-6}
, {-0x1.5ab1be0000000p-6}
}
, {{0x1.5c0aa80000000p-6}
, {-0x1.8048400000000p-6}
, {0x1.65d9f20000000p-5}
, {-0x1.0a41780000000p-4}
, {0x1.909eb40000000p-10}
, {-0x1.15c1600000000p-4}
, {0x1.1dffac0000000p-6}
, {-0x1.d535940000000p-5}
, {-0x1.394b4c0000000p-5}
, {-0x1.6690ea0000000p-5}
, {0x1.9341ce0000000p-6}
, {-0x1.643eca0000000p-13}
, {-0x1.3497c60000000p-5}
, {-0x1.6333300000000p-6}
, {-0x1.54d4860000000p-8}
, {0x1.ac25e40000000p-8}
, {-0x1.e1abb00000000p-6}
, {0x1.ff3f920000000p-8}
, {0x1.1ca4a60000000p-5}
, {0x1.cf04a40000000p-5}
, {-0x1.0607880000000p-6}
, {0x1.ff0d900000000p-6}
, {-0x1.75586a0000000p-5}
, {-0x1.9caaae0000000p-6}
, {-0x1.a686080000000p-5}
, {-0x1.5a71fc0000000p-5}
, {-0x1.d70bfa0000000p-9}
, {-0x1.cd393e0000000p-6}
, {0x1.ee58800000000p-7}
, {-0x1.88778e0000000p-9}
, {-0x1.64a2b60000000p-5}
, {-0x1.0792cc0000000p-4}
, {0x1.7aa73e0000000p-6}
, {0x1.775f880000000p-7}
, {-0x1.48fba80000000p-7}
, {0x1.4b26d00000000p-5}
, {0x1.06e2080000000p-5}
, {0x1.06b1ba0000000p-4}
, {0x1.08fcb80000000p-5}
, {0x1.0048c00000000p-5}
, {-0x1.c301060000000p-5}
, {0x1.25d7b80000000p-5}
, {-0x1.56db240000000p-5}
, {0x1.a2f17c0000000p-7}
, {-0x1.4b75ac0000000p-5}
, {0x1.5715880000000p-8}
, {0x1.286f500000000p-4}
, {-0x1.dcd6f80000000p-5}
, {0x1.91a5120000000p-5}
, {-0x1.33274c0000000p-4}
, {-0x1.1b80960000000p-4}
, {0x1.abbaf20000000p-6}
, {-0x1.b07a100000000p-6}
, {0x1.b85f3e0000000p-6}
, {0x1.c897180000000p-5}
, {0x1.205ca80000000p-5}
, {-0x1.1e0cac0000000p-4}
, {-0x1.4af69c0000000p-6}
, {-0x1.33f8020000000p-4}
, {-0x1.7b5dae0000000p-5}
, {0x1.3eb36a0000000p-7}
, {0x1.193a4e0000000p-4}
, {0x1.7080000000000p-5}
, {-0x1.e61f240000000p-8}
, {0x1.c25b400000000p-6}
, {-0x1.4616e40000000p-5}
, {0x1.dd751a0000000p-6}
, {-0x1.72ee820000000p-6}
, {0x1.0361600000000p-6}
, {0x1.6529e80000000p-5}
, {0x1.66d0ce0000000p-6}
, {0x1.caa8b40000000p-6}
, {0x1.cb6ade0000000p-6}
, {-0x1.45495c0000000p-7}
, {-0x1.c096b00000000p-7}
, {-0x1.0491e80000000p-6}
, {0x1.3747a60000000p-6}
, {-0x1.0099960000000p-6}
, {-0x1.ed81aa0000000p-5}
, {0x1.1ddd7e0000000p-7}
}
, {{-0x1.a70b700000000p-16}
, {-0x1.746c680000000p-4}
, {0x1.5a94b40000000p-5}
, {0x1.3c79340000000p-8}
, {0x1.876b080000000p-5}
, {-0x1.9d2e380000000p-5}
, {-0x1.0add500000000p-7}
, {0x1.587d7e0000000p-4}
, {-0x1.9beaf20000000p-6}
, {0x1.45f1e00000000p-9}
, {0x1.b823c00000000p-5}
, {-0x1.2b97ec0000000p-5}
, {0x1.8ff7aa0000000p-5}
, {0x1.ad4a0c0000000p-5}
, {-0x1.2c74560000000p-5}
, {0x1.9dcc8e0000000p-6}
, {-0x1.59700a0000000p-5}
, {0x1.099d840000000p-4}
, {0x1.0cb2fc0000000p-4}
, {0x1.3627b40000000p-6}
, {-0x1.ad9abe0000000p-7}
, {-0x1.508f9e0000000p-9}
, {0x1.193dba0000000p-4}
, {-0x1.02518a0000000p-6}
, {0x1.a948aa0000000p-6}
, {0x1.286c960000000p-4}
, {0x1.4cbe0e0000000p-8}
, {-0x1.db38c00000000p-5}
, {0x1.bed8120000000p-5}
, {0x1.c51d520000000p-6}
, {0x1.8939b60000000p-6}
, {-0x1.6b24e60000000p-4}
, {0x1.9786760000000p-8}
, {0x1.857efa0000000p-5}
, {-0x1.2e2d8e0000000p-7}
, {0x1.22783e0000000p-6}
, {-0x1.add0e00000000p-5}
, {0x1.73d78a0000000p-5}
, {-0x1.86f9a40000000p-8}
, {-0x1.76ff6e0000000p-7}
, {0x1.4192560000000p-8}
, {0x1.eb5c120000000p-6}
, {-0x1.faf0720000000p-6}
, {-0x1.2c39620000000p-6}
, {-0x1.e5261e0000000p-5}
, {-0x1.ac30480000000p-9}
, {-0x1.d8724c0000000p-5}
, {-0x1.d4379c0000000p-8}
, {0x1.03bdd80000000p-6}
, {-0x1.d03f5a0000000p-5}
, {-0x1.e74f960000000p-5}
, {-0x1.7696260000000p-7}
, {-0x1.7474ba0000000p-6}
, {0x1.0b56180000000p-4}
, {0x1.4e45d60000000p-6}
, {-0x1.87ed6e0000000p-6}
, {-0x1.42f6aa0000000p-5}
, {0x1.871a480000000p-5}
, {-0x1.aef5de0000000p-10}
, {-0x1.3357940000000p-7}
, {0x1.0b082a0000000p-4}
, {-0x1.ff83260000000p-9}
, {-0x1.149e4a0000000p-4}
, {0x1.0490840000000p-7}
, {0x1.5aefca0000000p-6}
, {-0x1.5d08b80000000p-8}
, {-0x1.4e18840000000p-4}
, {-0x1.94da840000000p-6}
, {0x1.f343ce0000000p-6}
, {-0x1.ec879a0000000p-6}
, {-0x1.65859a0000000p-8}
, {-0x1.02c5d20000000p-4}
, {0x1.d905320000000p-5}
, {-0x1.cce91c0000000p-6}
, {0x1.5aeeac0000000p-4}
, {-0x1.ab016e0000000p-6}
, {-0x1.c6240e0000000p-7}
, {0x1.7dcefc0000000p-5}
, {0x1.1a7f3e0000000p-5}
, {0x1.9c8cd20000000p-6}
}
, {{-0x1.97303e0000000p-5}
, {-0x1.5ab2140000000p-6}
, {0x1.e32cdc0000000p-5}
, {-0x1.18becc0000000p-4}
, {0x1.531c080000000p-6}
, {0x1.3e16320000000p-6}
, {-0x1.ba2b200000000p-6}
, {-0x1.1dbe120000000p-5}
, {-0x1.8ce25a0000000p-5}
, {0x1.5246c20000000p-5}
, {0x1.3a311a0000000p-4}
, {-0x1.87c33e0000000p-6}
, {-0x1.b269180000000p-9}
, {-0x1.13e50c0000000p-4}
, {-0x1.0160da0000000p-6}
, {0x1.7c09d00000000p-6}
, {-0x1.1257720000000p-5}
, {0x1.bde9560000000p-8}
, {-0x1.76fc280000000p-5}
, {-0x1.f9a42a0000000p-7}
, {-0x1.a742b20000000p-5}
, {0x1.b09a5a0000000p-6}
, {0x1.a596360000000p-10}
, {0x1.2d98d00000000p-5}
, {0x1.0096700000000p-7}
, {-0x1.1774bc0000000p-4}
, {0x1.f5c3be0000000p-6}
, {0x1.f454fc0000000p-6}
, {0x1.bd5da60000000p-6}
, {-0x1.73052a0000000p-5}
, {0x1.59a5b00000000p-6}
, {0x1.3c3b3c0000000p-5}
, {-0x1.5f204c0000000p-5}
, {0x1.d3adb20000000p-5}
, {0x1.52e9160000000p-6}
, {-0x1.a301ce0000000p-8}
, {0x1.12cae20000000p-5}
, {-0x1.f4c23c0000000p-7}
, {0x1.809e040000000p-8}
, {0x1.8e8c880000000p-5}
, {0x1.8b08680000000p-5}
, {0x1.dbbb400000000p-5}
, {0x1.3d74ca0000000p-5}
, {-0x1.9df3b40000000p-5}
, {0x1.b555780000000p-5}
, {0x1.47e53a0000000p-4}
, {-0x1.0778d00000000p-5}
, {-0x1.5afa700000000p-6}
, {0x1.95bd340000000p-6}
, {0x1.a7e5be0000000p-5}
, {0x1.d1bd440000000p-6}
, {-0x1.6f39100000000p-6}
, {-0x1.0ffb880000000p-6}
, {0x1.d376540000000p-6}
, {-0x1.7bbcfc0000000p-6}
, {-0x1.1ff4680000000p-13}
, {0x1.05f5d20000000p-4}
, {-0x1.7d47920000000p-6}
, {0x1.14e2c40000000p-5}
, {-0x1.cf0d0e0000000p-5}
, {0x1.81e5900000000p-5}
, {0x1.9befa80000000p-6}
, {-0x1.abcef80000000p-6}
, {-0x1.08958e0000000p-4}
, {0x1.431d140000000p-7}
, {-0x1.2efe440000000p-5}
, {-0x1.906a2a0000000p-5}
, {0x1.296b7e0000000p-6}
, {-0x1.7ed0d60000000p-7}
, {0x1.a934a80000000p-5}
, {-0x1.0bb7020000000p-4}
, {0x1.7dc5540000000p-6}
, {-0x1.14a3340000000p-5}
, {0x1.2849460000000p-6}
, {0x1.3759b40000000p-4}
, {-0x1.7fd52c0000000p-9}
, {0x1.ac6b780000000p-6}
, {0x1.5ca98a0000000p-4}
, {0x1.4d8e800000000p-7}
, {0x1.3e50660000000p-6}
}
, {{0x1.621e520000000p-5}
, {0x1.bf71f00000000p-5}
, {0x1.c4283a0000000p-6}
, {0x1.1082960000000p-4}
, {0x1.476e220000000p-5}
, {0x1.e458e60000000p-6}
, {0x1.bbe5e20000000p-10}
, {-0x1.6823f00000000p-5}
, {-0x1.3809e60000000p-6}
, {-0x1.b461ba0000000p-6}
, {-0x1.1362380000000p-4}
, {0x1.cfa8100000000p-13}
, {-0x1.001df00000000p-4}
, {0x1.d559480000000p-5}
, {0x1.2ef2e80000000p-4}
, {0x1.d388340000000p-5}
, {0x1.1f6eba0000000p-10}
, {0x1.59ce300000000p-5}
, {0x1.c08dfe0000000p-6}
, {0x1.013baa0000000p-5}
, {-0x1.9ebb940000000p-5}
, {-0x1.157c120000000p-4}
, {-0x1.a4e1240000000p-7}
, {0x1.dcdff60000000p-6}
, {-0x1.ca098c0000000p-7}
, {0x1.1ee4f80000000p-4}
, {0x1.e7389c0000000p-8}
, {0x1.28529a0000000p-6}
, {-0x1.becbac0000000p-5}
, {-0x1.579a160000000p-6}
, {-0x1.5db7c20000000p-5}
, {-0x1.f1b15c0000000p-5}
, {-0x1.d6b2100000000p-5}
, {-0x1.6773a20000000p-5}
, {-0x1.0336cc0000000p-10}
, {-0x1.6f7cb60000000p-7}
, {0x1.c75ec60000000p-7}
, {0x1.8c5f6c0000000p-5}
, {-0x1.4fd1540000000p-5}
, {0x1.c7b32c0000000p-9}
, {-0x1.3563320000000p-4}
, {-0x1.2234b20000000p-4}
, {-0x1.1929480000000p-5}
, {-0x1.985c740000000p-6}
, {0x1.2bcaae0000000p-7}
, {0x1.819fa60000000p-5}
, {0x1.91b2500000000p-6}
, {0x1.6ea4220000000p-5}
, {-0x1.6bf8180000000p-5}
, {0x1.2b55ea0000000p-6}
, {0x1.f5c2c80000000p-6}
, {-0x1.7971460000000p-6}
, {0x1.0e60900000000p-5}
, {0x1.9f280a0000000p-5}
, {0x1.1441380000000p-4}
, {0x1.3c86780000000p-7}
, {0x1.0ea6660000000p-4}
, {-0x1.08e75a0000000p-5}
, {-0x1.dffedc0000000p-8}
, {0x1.1333c80000000p-5}
, {-0x1.f1f6ea0000000p-5}
, {-0x1.68243a0000000p-6}
, {-0x1.015cfc0000000p-4}
, {0x1.3dd20e0000000p-5}
, {0x1.b5f9de0000000p-5}
, {0x1.f0e6de0000000p-5}
, {0x1.179b200000000p-5}
, {-0x1.a663560000000p-5}
, {-0x1.cc766e0000000p-7}
, {-0x1.cba65e0000000p-5}
, {0x1.ac3fbc0000000p-5}
, {0x1.4bdbba0000000p-6}
, {0x1.9d5ac80000000p-6}
, {0x1.6ecc9c0000000p-6}
, {-0x1.05c79a0000000p-4}
, {-0x1.e4a0fe0000000p-6}
, {-0x1.c29c480000000p-6}
, {0x1.5a8a460000000p-5}
, {0x1.b1fc480000000p-6}
, {0x1.0e50bc0000000p-4}
}
, {{-0x1.08aeba0000000p-5}
, {0x1.a3b6840000000p-6}
, {-0x1.c6b0fc0000000p-6}
, {0x1.fcc4840000000p-6}
, {-0x1.be46da0000000p-5}
, {-0x1.6347d20000000p-6}
, {0x1.d547880000000p-5}
, {-0x1.5597fc0000000p-5}
, {-0x1.91c9d20000000p-5}
, {-0x1.3ae9060000000p-5}
, {-0x1.e206840000000p-6}
, {0x1.461e7c0000000p-6}
, {0x1.06ff100000000p-4}
, {-0x1.e310300000000p-5}
, {-0x1.6ccbfe0000000p-7}
, {0x1.b5afd60000000p-5}
, {0x1.9850da0000000p-5}
, {0x1.132e760000000p-5}
, {-0x1.e8f6a80000000p-5}
, {0x1.5dea7a0000000p-8}
, {0x1.d4a13c0000000p-6}
, {0x1.62c29c0000000p-5}
, {-0x1.122df20000000p-4}
, {-0x1.0dcf200000000p-5}
, {-0x1.f88c200000000p-8}
, {0x1.9944340000000p-5}
, {0x1.b099700000000p-5}
, {-0x1.ff10260000000p-5}
, {-0x1.c3464c0000000p-5}
, {0x1.6537e60000000p-7}
, {0x1.1f04dc0000000p-5}
, {0x1.33037e0000000p-5}
, {-0x1.54a6bc0000000p-7}
, {-0x1.5078f80000000p-5}
, {-0x1.b184fc0000000p-6}
, {0x1.9d0b220000000p-6}
, {-0x1.e773260000000p-8}
, {0x1.0273400000000p-5}
, {0x1.874e900000000p-6}
, {-0x1.35d0aa0000000p-5}
, {0x1.41bedc0000000p-8}
, {0x1.d64a8e0000000p-5}
, {0x1.f261c00000000p-5}
, {-0x1.be81980000000p-5}
, {-0x1.3631420000000p-5}
, {0x1.867ce60000000p-7}
, {0x1.4d82100000000p-6}
, {-0x1.2befe20000000p-6}
, {-0x1.59bfb00000000p-5}
, {0x1.53985a0000000p-5}
, {0x1.38f5de0000000p-4}
, {-0x1.60978a0000000p-5}
, {-0x1.8f96de0000000p-10}
, {0x1.236cd60000000p-5}
, {0x1.093a600000000p-4}
, {0x1.1935ba0000000p-5}
, {-0x1.ad51e80000000p-6}
, {0x1.921fb80000000p-5}
, {0x1.7820aa0000000p-6}
, {0x1.787d300000000p-8}
, {-0x1.8633820000000p-6}
, {-0x1.bfec1c0000000p-6}
, {0x1.0cc9e40000000p-5}
, {-0x1.47993e0000000p-5}
, {0x1.215fbc0000000p-4}
, {-0x1.1718080000000p-7}
, {-0x1.da9ce80000000p-6}
, {0x1.30c2f20000000p-8}
, {0x1.b416a60000000p-5}
, {0x1.0a9a9a0000000p-6}
, {-0x1.5a15c00000000p-5}
, {-0x1.ed10800000000p-6}
, {-0x1.54f1da0000000p-5}
, {-0x1.26e3620000000p-5}
, {0x1.219a760000000p-5}
, {0x1.83847e0000000p-5}
, {-0x1.560e020000000p-4}
, {0x1.55af2c0000000p-5}
, {0x1.ee0c380000000p-6}
, {-0x1.6289a80000000p-8}
}
, {{-0x1.c792120000000p-8}
, {-0x1.634de60000000p-4}
, {-0x1.9952d00000000p-7}
, {0x1.2ef7100000000p-5}
, {-0x1.3a8c8c0000000p-6}
, {-0x1.974ec60000000p-5}
, {-0x1.4347aa0000000p-4}
, {0x1.0e46e40000000p-7}
, {-0x1.307f0c0000000p-6}
, {0x1.26ab440000000p-7}
, {-0x1.d658fc0000000p-5}
, {-0x1.9855360000000p-6}
, {0x1.26aa320000000p-4}
, {0x1.7d7dc20000000p-6}
, {-0x1.4489200000000p-5}
, {0x1.d7ebae0000000p-5}
, {0x1.7df5b40000000p-5}
, {-0x1.3deeec0000000p-6}
, {0x1.4b76cc0000000p-5}
, {0x1.0425a80000000p-5}
, {-0x1.a0e11c0000000p-5}
, {-0x1.2cf8ce0000000p-4}
, {0x1.ba0f720000000p-7}
, {0x1.893f160000000p-6}
, {0x1.41cd7e0000000p-5}
, {-0x1.fb2b620000000p-5}
, {0x1.2bf8c80000000p-4}
, {0x1.6b2f620000000p-5}
, {-0x1.0015fe0000000p-4}
, {0x1.60fc3e0000000p-5}
, {0x1.57543c0000000p-7}
, {0x1.4d6e760000000p-5}
, {-0x1.b4760e0000000p-7}
, {-0x1.4f36a80000000p-8}
, {-0x1.22b3e20000000p-6}
, {0x1.2870680000000p-5}
, {0x1.c7b7fa0000000p-5}
, {0x1.18b4a80000000p-6}
, {-0x1.09941a0000000p-4}
, {0x1.250e5c0000000p-6}
, {0x1.7509440000000p-5}
, {-0x1.2d1c8a0000000p-11}
, {-0x1.d163b80000000p-5}
, {0x1.ff44ac0000000p-5}
, {0x1.c6d9e20000000p-7}
, {0x1.bee80c0000000p-7}
, {-0x1.68c0880000000p-7}
, {-0x1.204ab20000000p-4}
, {0x1.1aac580000000p-4}
, {-0x1.2d7f3e0000000p-5}
, {-0x1.75f6680000000p-5}
, {-0x1.15b78e0000000p-4}
, {0x1.1b8c740000000p-7}
, {0x1.b3de4a0000000p-5}
, {-0x1.cecfea0000000p-5}
, {-0x1.fae2120000000p-5}
, {0x1.31c86a0000000p-5}
, {-0x1.bf4f480000000p-6}
, {0x1.def6e60000000p-5}
, {0x1.1cfece0000000p-4}
, {0x1.400dde0000000p-5}
, {-0x1.f56bec0000000p-5}
, {0x1.daa8ca0000000p-5}
, {0x1.4a803c0000000p-6}
, {-0x1.fd8e720000000p-5}
, {0x1.59169e0000000p-5}
, {0x1.72459e0000000p-9}
, {-0x1.578ba20000000p-7}
, {-0x1.079a2e0000000p-4}
, {-0x1.1cde060000000p-5}
, {0x1.06b6d80000000p-7}
, {0x1.480ee60000000p-12}
, {-0x1.33bcfa0000000p-4}
, {0x1.6f4c880000000p-9}
, {-0x1.a94ff00000000p-9}
, {-0x1.f46bdc0000000p-5}
, {-0x1.ce55000000000p-6}
, {0x1.c28a660000000p-5}
, {-0x1.4941380000000p-8}
, {0x1.28bb5a0000000p-7}
}
, {{-0x1.1484c20000000p-5}
, {-0x1.333da80000000p-4}
, {0x1.afe0420000000p-6}
, {0x1.5a075a0000000p-10}
, {-0x1.054dd00000000p-7}
, {0x1.88c4900000000p-7}
, {0x1.a15a880000000p-5}
, {-0x1.9b4f600000000p-5}
, {0x1.2bf7520000000p-7}
, {0x1.23f87e0000000p-5}
, {-0x1.aafc6e0000000p-5}
, {-0x1.f953820000000p-6}
, {-0x1.7af9060000000p-10}
, {-0x1.157ca40000000p-4}
, {-0x1.dae4980000000p-9}
, {-0x1.a749580000000p-6}
, {-0x1.a950ba0000000p-6}
, {0x1.0713540000000p-5}
, {0x1.a3bea00000000p-7}
, {0x1.0b82980000000p-4}
, {-0x1.e883640000000p-5}
, {0x1.a571360000000p-5}
, {0x1.ee59940000000p-7}
, {0x1.887afc0000000p-5}
, {0x1.18ea920000000p-6}
, {0x1.d55edc0000000p-5}
, {-0x1.de1a960000000p-5}
, {-0x1.3049080000000p-10}
, {0x1.68a01a0000000p-5}
, {-0x1.234eae0000000p-6}
, {0x1.6c1c2a0000000p-5}
, {0x1.31ad0e0000000p-8}
, {0x1.d3d28a0000000p-5}
, {-0x1.447c8c0000000p-5}
, {0x1.1d59e60000000p-9}
, {0x1.bcfe2a0000000p-5}
, {0x1.af72aa0000000p-5}
, {-0x1.db9a920000000p-7}
, {-0x1.07349e0000000p-5}
, {0x1.2ff65e0000000p-5}
, {0x1.a5db220000000p-7}
, {-0x1.811e260000000p-5}
, {0x1.5a00f40000000p-5}
, {-0x1.1de1440000000p-6}
, {-0x1.690bc80000000p-7}
, {-0x1.2cb7e80000000p-4}
, {-0x1.1e12a60000000p-5}
, {0x1.252c7c0000000p-5}
, {0x1.121db00000000p-6}
, {-0x1.1d3b820000000p-7}
, {-0x1.68a48a0000000p-7}
, {0x1.167d500000000p-4}
, {-0x1.d0f5260000000p-5}
, {-0x1.3ac9180000000p-5}
, {0x1.383acc0000000p-4}
, {-0x1.17701c0000000p-4}
, {0x1.37d98a0000000p-5}
, {-0x1.703aa20000000p-5}
, {-0x1.40295c0000000p-4}
, {0x1.992dd60000000p-5}
, {-0x1.d962880000000p-8}
, {-0x1.5bd4660000000p-8}
, {0x1.c0c87c0000000p-5}
, {-0x1.355d2e0000000p-5}
, {0x1.c2d3cc0000000p-5}
, {0x1.2a50dc0000000p-8}
, {0x1.75d35c0000000p-5}
, {-0x1.32c55e0000000p-6}
, {-0x1.db76bc0000000p-6}
, {-0x1.220e580000000p-10}
, {-0x1.17d2cc0000000p-9}
, {-0x1.1a8c420000000p-5}
, {0x1.4db2480000000p-6}
, {-0x1.0534720000000p-5}
, {-0x1.921a8a0000000p-6}
, {-0x1.69e1ee0000000p-6}
, {0x1.99df600000000p-5}
, {-0x1.11a3f40000000p-5}
, {-0x1.92c0aa0000000p-6}
, {-0x1.3b4ec40000000p-6}
}
, {{0x1.520c740000000p-6}
, {-0x1.9c0d020000000p-7}
, {0x1.13b5820000000p-4}
, {-0x1.88f4060000000p-5}
, {-0x1.90e1760000000p-6}
, {-0x1.8cdb860000000p-7}
, {0x1.6603be0000000p-11}
, {-0x1.cc71140000000p-5}
, {-0x1.07a7180000000p-6}
, {0x1.5a57f60000000p-5}
, {-0x1.cd4c340000000p-7}
, {0x1.a6670e0000000p-9}
, {0x1.0f950a0000000p-6}
, {0x1.29bc0a0000000p-4}
, {0x1.e1f63e0000000p-9}
, {-0x1.46e4520000000p-6}
, {0x1.6d52460000000p-6}
, {-0x1.33a6360000000p-6}
, {-0x1.4c4d840000000p-5}
, {0x1.c727680000000p-6}
, {0x1.d299040000000p-5}
, {0x1.2b38900000000p-4}
, {-0x1.06f3b00000000p-4}
, {-0x1.30b0180000000p-4}
, {0x1.daa3ca0000000p-5}
, {-0x1.ab7aba0000000p-5}
, {-0x1.56fb360000000p-6}
, {0x1.2d5c340000000p-5}
, {-0x1.1686ae0000000p-4}
, {0x1.908d780000000p-10}
, {0x1.14f15e0000000p-5}
, {0x1.e6a9880000000p-5}
, {0x1.4f21aa0000000p-7}
, {0x1.81a5ac0000000p-7}
, {0x1.e42a080000000p-10}
, {-0x1.3981a60000000p-4}
, {0x1.cc49980000000p-6}
, {-0x1.2ab9940000000p-5}
, {0x1.8ac0060000000p-7}
, {0x1.be97de0000000p-5}
, {0x1.388e680000000p-6}
, {-0x1.71caf80000000p-8}
, {0x1.13704c0000000p-4}
, {0x1.ecc8240000000p-6}
, {-0x1.ca686c0000000p-5}
, {0x1.e8f2320000000p-7}
, {-0x1.d8d58c0000000p-5}
, {0x1.1860180000000p-6}
, {-0x1.f39dfc0000000p-8}
, {-0x1.1b36fa0000000p-5}
, {0x1.26e8da0000000p-5}
, {0x1.160c380000000p-7}
, {-0x1.11d14a0000000p-4}
, {-0x1.6e7d720000000p-5}
, {0x1.0fa6600000000p-7}
, {-0x1.9ef7b80000000p-10}
, {0x1.302a000000000p-6}
, {0x1.1e581c0000000p-6}
, {-0x1.6aa78a0000000p-5}
, {0x1.0407880000000p-4}
, {0x1.1651a00000000p-5}
, {0x1.7dd1b60000000p-5}
, {-0x1.7b6f100000000p-5}
, {0x1.eac94c0000000p-8}
, {0x1.5140e80000000p-6}
, {-0x1.053bfc0000000p-4}
, {-0x1.1f2a1e0000000p-4}
, {0x1.76c8e00000000p-6}
, {0x1.e894760000000p-6}
, {-0x1.0cad0e0000000p-4}
, {-0x1.fa70d40000000p-7}
, {0x1.b9771a0000000p-5}
, {-0x1.068d840000000p-5}
, {0x1.f4a57e0000000p-9}
, {0x1.a8d2220000000p-6}
, {0x1.9f482c0000000p-5}
, {0x1.163d400000000p-6}
, {-0x1.136ba40000000p-7}
, {-0x1.08ab800000000p-7}
, {-0x1.8f13460000000p-7}
}
, {{0x1.e5002a0000000p-7}
, {0x1.1cb48e0000000p-5}
, {-0x1.8f36c80000000p-6}
, {0x1.00e4480000000p-6}
, {-0x1.3871b80000000p-5}
, {0x1.814fec0000000p-5}
, {-0x1.6cbd1e0000000p-6}
, {0x1.da5a6a0000000p-5}
, {-0x1.82602c0000000p-5}
, {0x1.61c9ea0000000p-7}
, {0x1.b1fc2a0000000p-7}
, {-0x1.3d8ace0000000p-5}
, {-0x1.de46b80000000p-10}
, {0x1.28ffe80000000p-5}
, {-0x1.69bbbc0000000p-5}
, {0x1.ecc8280000000p-5}
, {-0x1.09b4ce0000000p-5}
, {0x1.94e3b00000000p-6}
, {-0x1.672bb60000000p-7}
, {-0x1.527fa00000000p-6}
, {-0x1.f08bb80000000p-6}
, {-0x1.1be7cc0000000p-4}
, {0x1.1958e00000000p-5}
, {0x1.b2a9460000000p-10}
, {-0x1.500e640000000p-5}
, {0x1.d1700c0000000p-5}
, {-0x1.3ac4100000000p-8}
, {0x1.5b585a0000000p-6}
, {0x1.1c06960000000p-5}
, {-0x1.00a6da0000000p-5}
, {-0x1.74de5e0000000p-6}
, {-0x1.13b5840000000p-4}
, {0x1.4a4af60000000p-6}
, {-0x1.4e1bca0000000p-7}
, {0x1.93fe4c0000000p-5}
, {0x1.ee17500000000p-5}
, {0x1.f1946e0000000p-7}
, {0x1.5589580000000p-7}
, {0x1.034a440000000p-5}
, {-0x1.47d7160000000p-5}
, {-0x1.df3bd80000000p-7}
, {-0x1.bcd2dc0000000p-6}
, {-0x1.d4fcd20000000p-5}
, {-0x1.32b1100000000p-7}
, {-0x1.8fc58e0000000p-5}
, {0x1.8090a60000000p-5}
, {0x1.27e0560000000p-6}
, {0x1.4c33c20000000p-6}
, {0x1.83f3980000000p-10}
, {-0x1.1c52840000000p-5}
, {0x1.d2e66e0000000p-6}
, {0x1.d3ea620000000p-8}
, {0x1.3f93460000000p-5}
, {0x1.a6180c0000000p-6}
, {-0x1.4b5fea0000000p-5}
, {-0x1.bb9ee40000000p-5}
, {0x1.e9d6920000000p-8}
, {-0x1.aad8860000000p-5}
, {0x1.886cd80000000p-6}
, {0x1.b005580000000p-5}
, {0x1.f1db860000000p-5}
, {0x1.278d2a0000000p-5}
, {-0x1.372e440000000p-5}
, {-0x1.dff38c0000000p-5}
, {-0x1.16ac380000000p-4}
, {0x1.20c1180000000p-11}
, {0x1.f4868c0000000p-6}
, {-0x1.3ff0b00000000p-5}
, {0x1.e24c280000000p-5}
, {0x1.6eac3c0000000p-5}
, {0x1.0882ea0000000p-5}
, {-0x1.abea3a0000000p-8}
, {0x1.bc66c80000000p-7}
, {-0x1.4507680000000p-6}
, {-0x1.993f6a0000000p-5}
, {0x1.26feb00000000p-4}
, {-0x1.adad6a0000000p-5}
, {0x1.02a6120000000p-4}
, {0x1.00d8ca0000000p-5}
, {0x1.28be320000000p-6}
}
, {{0x1.1c6c3a0000000p-5}
, {0x1.05facc0000000p-6}
, {0x1.def0060000000p-7}
, {-0x1.b48c240000000p-6}
, {0x1.81b3700000000p-6}
, {-0x1.bd555e0000000p-7}
, {0x1.d0f57c0000000p-8}
, {-0x1.7ff6960000000p-6}
, {-0x1.8b94a20000000p-12}
, {0x1.c1d9020000000p-7}
, {0x1.39c9c80000000p-5}
, {0x1.2eb5280000000p-5}
, {0x1.b5228c0000000p-7}
, {-0x1.6fdf640000000p-5}
, {0x1.2a6a780000000p-5}
, {-0x1.61776a0000000p-5}
, {-0x1.7db68e0000000p-5}
, {0x1.5db50a0000000p-6}
, {-0x1.cb6db80000000p-6}
, {-0x1.18fa280000000p-6}
, {0x1.782f780000000p-5}
, {0x1.25ae4a0000000p-5}
, {0x1.0522f00000000p-5}
, {-0x1.c354920000000p-5}
, {-0x1.7d98c20000000p-5}
, {-0x1.3afda40000000p-7}
, {-0x1.29b6f80000000p-6}
, {0x1.3e0e380000000p-5}
, {0x1.0e99d00000000p-5}
, {0x1.1dc0260000000p-6}
, {0x1.8520ee0000000p-6}
, {-0x1.5d5bcc0000000p-6}
, {-0x1.65769c0000000p-8}
, {0x1.f221cc0000000p-7}
, {0x1.08fd740000000p-5}
, {-0x1.6cd1d20000000p-9}
, {0x1.697f380000000p-5}
, {0x1.05236a0000000p-6}
, {0x1.03b3400000000p-7}
, {-0x1.97bc8a0000000p-6}
, {0x1.d3edf00000000p-5}
, {0x1.5c91480000000p-4}
, {-0x1.a7b5a40000000p-5}
, {-0x1.2713ca0000000p-4}
, {0x1.45a3b20000000p-5}
, {-0x1.2000bc0000000p-6}
, {0x1.4735700000000p-5}
, {-0x1.072d480000000p-4}
, {0x1.7826c40000000p-5}
, {0x1.636fd80000000p-5}
, {0x1.b21a560000000p-8}
, {-0x1.02a0580000000p-5}
, {0x1.526ae60000000p-5}
, {0x1.1ee4540000000p-4}
, {0x1.2f8f8a0000000p-6}
, {0x1.950b720000000p-5}
, {0x1.25018e0000000p-5}
, {0x1.13be9c0000000p-4}
, {0x1.0b23e20000000p-5}
, {-0x1.6e8e760000000p-6}
, {-0x1.54c48a0000000p-4}
, {-0x1.2492ac0000000p-4}
, {-0x1.20d0980000000p-6}
, {0x1.9c4afa0000000p-6}
, {0x1.895d240000000p-5}
, {0x1.71b4e20000000p-8}
, {0x1.09eb4e0000000p-5}
, {-0x1.08ca280000000p-6}
, {0x1.0c2c980000000p-6}
, {0x1.55e1020000000p-6}
, {-0x1.27e48a0000000p-4}
, {-0x1.3e6b3e0000000p-4}
, {-0x1.7948720000000p-5}
, {-0x1.1df10e0000000p-4}
, {-0x1.2a57160000000p-5}
, {-0x1.7bda8c0000000p-5}
, {-0x1.5a94bc0000000p-7}
, {0x1.27fee00000000p-4}
, {0x1.1dce160000000p-4}
, {0x1.e90b2c0000000p-5}
}
, {{-0x1.d02b0c0000000p-5}
, {0x1.2dea500000000p-7}
, {0x1.327a9c0000000p-5}
, {0x1.6df4040000000p-6}
, {-0x1.98eeb60000000p-5}
, {-0x1.9d5ac00000000p-5}
, {0x1.1e72620000000p-7}
, {-0x1.b8ff220000000p-5}
, {0x1.d838680000000p-6}
, {0x1.fea6760000000p-6}
, {0x1.9092980000000p-7}
, {0x1.ae04260000000p-7}
, {-0x1.f528600000000p-6}
, {-0x1.a261c40000000p-5}
, {0x1.987f6a0000000p-12}
, {0x1.38ef0a0000000p-5}
, {-0x1.54bbe00000000p-5}
, {0x1.233fc00000000p-6}
, {0x1.4fecaa0000000p-5}
, {0x1.6a3df80000000p-5}
, {-0x1.1172020000000p-7}
, {0x1.f037da0000000p-5}
, {-0x1.9bf9dc0000000p-5}
, {-0x1.2eaa920000000p-5}
, {-0x1.b1cd2c0000000p-6}
, {-0x1.f4504c0000000p-7}
, {-0x1.28ccc20000000p-5}
, {-0x1.0149480000000p-4}
, {0x1.2e5fbe0000000p-4}
, {0x1.0ab31c0000000p-5}
, {0x1.cd4c5e0000000p-8}
, {-0x1.959bfc0000000p-7}
, {0x1.e5d4760000000p-7}
, {-0x1.22caf80000000p-8}
, {-0x1.4c8a7a0000000p-6}
, {-0x1.57d1a60000000p-5}
, {-0x1.102d1e0000000p-5}
, {0x1.0d68300000000p-7}
, {0x1.04e67a0000000p-4}
, {-0x1.3c213c0000000p-5}
, {-0x1.60ccc20000000p-5}
, {0x1.18355c0000000p-5}
, {0x1.f463700000000p-7}
, {0x1.86b7420000000p-5}
, {-0x1.2a19020000000p-5}
, {-0x1.7988c60000000p-7}
, {0x1.042b420000000p-6}
, {0x1.1c4f120000000p-4}
, {0x1.05fcf40000000p-5}
, {-0x1.a9c8b60000000p-5}
, {-0x1.35cf4c0000000p-6}
, {0x1.6b04ca0000000p-5}
, {0x1.ab80360000000p-6}
, {-0x1.2128040000000p-5}
, {0x1.14312c0000000p-4}
, {0x1.6cc48c0000000p-6}
, {-0x1.476ba40000000p-6}
, {0x1.69bf4e0000000p-6}
, {-0x1.fe0e8c0000000p-6}
, {-0x1.2a27c80000000p-7}
, {-0x1.311fea0000000p-5}
, {-0x1.185d220000000p-4}
, {-0x1.5f42780000000p-5}
, {0x1.1266c00000000p-4}
, {0x1.00e78a0000000p-11}
, {-0x1.b5ac720000000p-6}
, {0x1.09c3380000000p-4}
, {0x1.b96c6a0000000p-7}
, {0x1.3fd6820000000p-6}
, {0x1.c609360000000p-7}
, {-0x1.5a3a880000000p-5}
, {0x1.1fac260000000p-7}
, {0x1.6b033c0000000p-8}
, {-0x1.67d4460000000p-4}
, {0x1.35be0e0000000p-8}
, {-0x1.2714700000000p-6}
, {-0x1.5ea4840000000p-6}
, {0x1.96c8fe0000000p-13}
, {-0x1.bd778c0000000p-6}
, {-0x1.b739340000000p-10}
}
, {{0x1.5fe2560000000p-6}
, {0x1.7984c00000000p-8}
, {0x1.1884180000000p-5}
, {0x1.d2930e0000000p-10}
, {0x1.8eb3b80000000p-5}
, {-0x1.6da4fe0000000p-6}
, {0x1.fffece0000000p-11}
, {-0x1.5ae11c0000000p-6}
, {-0x1.0dd38a0000000p-5}
, {-0x1.d2e5100000000p-6}
, {-0x1.cd9c5a0000000p-5}
, {0x1.a0f01a0000000p-8}
, {0x1.420e700000000p-6}
, {0x1.0f3a580000000p-5}
, {0x1.05c4920000000p-4}
, {-0x1.42821c0000000p-6}
, {-0x1.ec4cd00000000p-6}
, {-0x1.f305aa0000000p-5}
, {-0x1.449b060000000p-5}
, {-0x1.1985760000000p-4}
, {-0x1.84a29c0000000p-5}
, {0x1.3b1fc60000000p-6}
, {0x1.ada2920000000p-6}
, {0x1.dc77ea0000000p-5}
, {-0x1.73d9060000000p-6}
, {0x1.24fa9c0000000p-4}
, {0x1.7c25320000000p-5}
, {0x1.ecb96e0000000p-6}
, {0x1.8bd9de0000000p-6}
, {-0x1.ec5c5a0000000p-5}
, {0x1.d47ba60000000p-7}
, {-0x1.5b1bce0000000p-7}
, {0x1.cc85980000000p-5}
, {0x1.39c3d60000000p-5}
, {0x1.349d120000000p-4}
, {0x1.95837a0000000p-6}
, {-0x1.6d2af80000000p-7}
, {-0x1.5dd5640000000p-5}
, {-0x1.229e940000000p-4}
, {-0x1.0dee280000000p-4}
, {-0x1.e026460000000p-5}
, {0x1.dbf4ca0000000p-5}
, {0x1.cb3dd40000000p-5}
, {0x1.1f4f800000000p-5}
, {0x1.8c1f3c0000000p-7}
, {-0x1.4dc7740000000p-7}
, {0x1.06f3ca0000000p-5}
, {-0x1.25b3020000000p-4}
, {0x1.7561720000000p-6}
, {0x1.7e4fb80000000p-7}
, {-0x1.d9168c0000000p-10}
, {0x1.97df000000000p-5}
, {0x1.ff493a0000000p-6}
, {-0x1.bb8d5a0000000p-9}
, {0x1.6830220000000p-5}
, {-0x1.00ea940000000p-5}
, {0x1.8170100000000p-6}
, {-0x1.07b96c0000000p-6}
, {-0x1.bed62a0000000p-7}
, {0x1.9a4c800000000p-5}
, {-0x1.a2b0900000000p-5}
, {0x1.56b8d20000000p-5}
, {0x1.3c1fe40000000p-5}
, {-0x1.d752f60000000p-6}
, {-0x1.8386a40000000p-11}
, {0x1.4e3a920000000p-5}
, {0x1.37d8f40000000p-6}
, {0x1.dfbce80000000p-5}
, {0x1.3b55880000000p-5}
, {0x1.72c1980000000p-9}
, {-0x1.9861b00000000p-5}
, {-0x1.3fff000000000p-6}
, {0x1.2c5ef20000000p-8}
, {0x1.6120ce0000000p-5}
, {0x1.1ffba00000000p-7}
, {0x1.1f9b640000000p-5}
, {0x1.a416ea0000000p-6}
, {-0x1.68802e0000000p-8}
, {0x1.6610980000000p-5}
, {-0x1.2b7db00000000p-5}
}
, {{0x1.4c7b7e0000000p-6}
, {0x1.012f2c0000000p-4}
, {-0x1.2475440000000p-4}
, {0x1.8ce4b80000000p-5}
, {-0x1.8c58820000000p-5}
, {-0x1.ce1f320000000p-6}
, {0x1.34bc7a0000000p-4}
, {-0x1.ac556e0000000p-6}
, {0x1.1d200c0000000p-7}
, {-0x1.18ab8a0000000p-5}
, {-0x1.32e8560000000p-4}
, {0x1.a72e020000000p-6}
, {0x1.41c27c0000000p-6}
, {0x1.e122300000000p-6}
, {-0x1.f23ad60000000p-5}
, {0x1.9cd6500000000p-6}
, {0x1.33e5720000000p-5}
, {0x1.dc2f300000000p-5}
, {-0x1.2d99220000000p-6}
, {-0x1.d36cc80000000p-7}
, {0x1.15ebbe0000000p-6}
, {0x1.b1ee6a0000000p-6}
, {0x1.44affa0000000p-5}
, {-0x1.3f2cdc0000000p-5}
, {-0x1.28346a0000000p-5}
, {0x1.97b8940000000p-7}
, {-0x1.ab1a600000000p-5}
, {0x1.fc55ee0000000p-6}
, {-0x1.d01b2e0000000p-5}
, {-0x1.f94c0a0000000p-6}
, {-0x1.2f54da0000000p-4}
, {-0x1.1550b40000000p-7}
, {0x1.51b83a0000000p-5}
, {-0x1.90d1e60000000p-5}
, {0x1.7778920000000p-6}
, {-0x1.bc1e900000000p-7}
, {0x1.69972c0000000p-5}
, {0x1.019afa0000000p-4}
, {0x1.312dee0000000p-6}
, {-0x1.3186be0000000p-5}
, {0x1.5ba6a00000000p-5}
, {0x1.7aa4da0000000p-5}
, {0x1.5fee380000000p-8}
, {-0x1.fff0f20000000p-5}
, {-0x1.2f9af80000000p-7}
, {-0x1.3fc2e60000000p-5}
, {0x1.6fbb2a0000000p-5}
, {-0x1.1757060000000p-4}
, {-0x1.9fb5bc0000000p-5}
, {0x1.07445a0000000p-10}
, {0x1.6ef53c0000000p-6}
, {-0x1.3f50ac0000000p-5}
, {-0x1.1393f60000000p-5}
, {0x1.c917140000000p-6}
, {0x1.7a35180000000p-6}
, {0x1.a8b4c40000000p-12}
, {0x1.3bfa380000000p-4}
, {0x1.db3d240000000p-11}
, {0x1.27bcc00000000p-12}
, {-0x1.75aaaa0000000p-8}
, {0x1.1c4d160000000p-4}
, {-0x1.894bda0000000p-5}
, {-0x1.aaa92e0000000p-6}
, {0x1.05b63e0000000p-4}
, {-0x1.878e660000000p-5}
, {0x1.0174d00000000p-5}
, {-0x1.f365120000000p-9}
, {-0x1.9b8e0c0000000p-5}
, {0x1.fec0de0000000p-6}
, {0x1.40cd000000000p-5}
, {-0x1.60c99a0000000p-4}
, {-0x1.dd5e7c0000000p-8}
, {-0x1.3b391e0000000p-6}
, {0x1.116f960000000p-4}
, {0x1.b0b8620000000p-8}
, {0x1.ddd5760000000p-6}
, {-0x1.f7bdca0000000p-5}
, {0x1.c483d00000000p-5}
, {-0x1.1abe0e0000000p-5}
, {-0x1.c1a8d40000000p-8}
}
, {{0x1.3fb0180000000p-5}
, {-0x1.d3bcb40000000p-7}
, {0x1.34d9b60000000p-7}
, {0x1.2a6b000000000p-5}
, {-0x1.9ec8320000000p-6}
, {0x1.45d0ea0000000p-5}
, {0x1.37aa740000000p-5}
, {0x1.bf0b760000000p-6}
, {0x1.5a656c0000000p-5}
, {-0x1.fc650c0000000p-5}
, {-0x1.0e8f420000000p-5}
, {-0x1.6842c20000000p-4}
, {-0x1.170a7a0000000p-6}
, {-0x1.ba32e40000000p-6}
, {0x1.cbd7600000000p-5}
, {-0x1.1a35940000000p-6}
, {-0x1.cfa7a20000000p-6}
, {0x1.d54f680000000p-5}
, {0x1.1f29a20000000p-5}
, {0x1.23a10c0000000p-4}
, {-0x1.3dc7ee0000000p-6}
, {0x1.98ce800000000p-6}
, {0x1.4f32580000000p-6}
, {-0x1.0b19a00000000p-6}
, {-0x1.59f6380000000p-8}
, {-0x1.d0ddac0000000p-7}
, {0x1.9f7a960000000p-5}
, {0x1.02dcc80000000p-6}
, {0x1.e1fcd80000000p-5}
, {-0x1.51168a0000000p-6}
, {0x1.a8d9580000000p-6}
, {-0x1.f680360000000p-6}
, {0x1.4a35780000000p-7}
, {0x1.fa602c0000000p-5}
, {0x1.9aefe80000000p-6}
, {-0x1.0f21cc0000000p-4}
, {-0x1.cdce8e0000000p-7}
, {-0x1.0db04e0000000p-5}
, {0x1.f743d40000000p-5}
, {0x1.0f71720000000p-6}
, {-0x1.c395dc0000000p-5}
, {-0x1.30634a0000000p-5}
, {0x1.347a220000000p-5}
, {0x1.957fe20000000p-4}
, {0x1.c7d6da0000000p-6}
, {0x1.5103420000000p-4}
, {-0x1.6565880000000p-6}
, {-0x1.8d3e0a0000000p-5}
, {-0x1.3337660000000p-4}
, {-0x1.75b1560000000p-4}
, {0x1.3130340000000p-6}
, {-0x1.4888c00000000p-4}
, {-0x1.348d5c0000000p-6}
, {-0x1.dfe9460000000p-14}
, {0x1.e77a920000000p-5}
, {0x1.5d9dd40000000p-4}
, {0x1.5e6f9e0000000p-4}
, {0x1.5643840000000p-4}
, {-0x1.b4ca060000000p-5}
, {-0x1.80d04a0000000p-5}
, {-0x1.25db8a0000000p-4}
, {-0x1.64a4600000000p-5}
, {-0x1.74bf380000000p-4}
, {-0x1.9235a00000000p-4}
, {-0x1.b923180000000p-5}
, {0x1.24994c0000000p-7}
, {0x1.75859e0000000p-6}
, {0x1.40860c0000000p-4}
, {0x1.2944760000000p-4}
, {0x1.9c4a680000000p-4}
, {0x1.2283200000000p-5}
, {-0x1.50ac9c0000000p-6}
, {-0x1.8d87e60000000p-6}
, {-0x1.b914840000000p-5}
, {-0x1.99b5880000000p-5}
, {-0x1.fe5e7a0000000p-6}
, {0x1.141f940000000p-5}
, {0x1.3e4b9a0000000p-8}
, {0x1.3200380000000p-4}
, {0x1.b5a9500000000p-6}
}
, {{-0x1.2573ac0000000p-9}
, {-0x1.62c2d60000000p-5}
, {-0x1.6127ac0000000p-8}
, {0x1.4dfc880000000p-4}
, {0x1.28ecb60000000p-7}
, {-0x1.01f7940000000p-4}
, {0x1.8b5f180000000p-5}
, {0x1.4673e60000000p-5}
, {-0x1.97e8980000000p-10}
, {0x1.53bc1e0000000p-7}
, {0x1.35b18a0000000p-4}
, {-0x1.17bd7a0000000p-4}
, {0x1.ea248a0000000p-5}
, {0x1.22fd9c0000000p-4}
, {0x1.0ad6e60000000p-4}
, {-0x1.8b7e7c0000000p-7}
, {0x1.61708c0000000p-8}
, {-0x1.3fcff20000000p-5}
, {-0x1.768c120000000p-7}
, {-0x1.98caa80000000p-5}
, {-0x1.1c09b80000000p-4}
, {-0x1.1e98a60000000p-4}
, {0x1.ed61620000000p-7}
, {-0x1.905ed20000000p-5}
, {-0x1.665f200000000p-5}
, {0x1.cee0560000000p-5}
, {-0x1.a7bc5e0000000p-13}
, {0x1.65d6c40000000p-5}
, {0x1.03c3b20000000p-7}
, {0x1.b5f3280000000p-8}
, {-0x1.eed34e0000000p-8}
, {0x1.3030020000000p-5}
, {0x1.ffcf9c0000000p-9}
, {-0x1.94c61c0000000p-5}
, {-0x1.52ed1e0000000p-5}
, {0x1.3ed3260000000p-7}
, {0x1.2e7a060000000p-6}
, {-0x1.46dbbc0000000p-5}
, {-0x1.a0858e0000000p-6}
, {-0x1.f63b180000000p-9}
, {0x1.d1cce40000000p-6}
, {0x1.c739600000000p-7}
, {-0x1.46f1d60000000p-5}
, {-0x1.3191a00000000p-4}
, {0x1.1174460000000p-4}
, {-0x1.87aadc0000000p-5}
, {-0x1.226cc80000000p-4}
, {0x1.237f7a0000000p-5}
, {0x1.1f5a100000000p-5}
, {0x1.0710320000000p-4}
, {-0x1.9a69380000000p-5}
, {-0x1.6dcb7e0000000p-5}
, {0x1.33cecc0000000p-4}
, {0x1.77a54c0000000p-5}
, {-0x1.6cb9140000000p-6}
, {-0x1.75f0d40000000p-7}
, {-0x1.53857e0000000p-7}
, {0x1.3428b60000000p-5}
, {0x1.a53eb40000000p-6}
, {0x1.5f07c60000000p-5}
, {0x1.13f2ce0000000p-9}
, {0x1.534edc0000000p-5}
, {-0x1.9a96ce0000000p-6}
, {0x1.24d1420000000p-4}
, {-0x1.41b1400000000p-4}
, {0x1.0c61860000000p-5}
, {-0x1.558f3e0000000p-9}
, {-0x1.48019a0000000p-4}
, {0x1.6624320000000p-8}
, {-0x1.3162760000000p-5}
, {-0x1.4e92900000000p-5}
, {0x1.6078480000000p-5}
, {0x1.d7bad60000000p-6}
, {-0x1.d1b6980000000p-6}
, {0x1.2060660000000p-4}
, {0x1.09e8960000000p-8}
, {0x1.161e4e0000000p-4}
, {0x1.57715c0000000p-5}
, {-0x1.a6ce6c0000000p-9}
, {0x1.3539ee0000000p-6}
}
}
;

#undef INPUT_CHANNELS
#undef CONV_FILTERS
#undef CONV_KERNEL_SIZE
#undef CONV_GROUPS
/**
  ******************************************************************************
  * @file    maxpool1d.hh
  * @author  Pierre-Emmanuel Novac <penovac@unice.fr>, LEAT, CNRS, Université Côte d'Azur, France
  * @version V2.0
  * @date    24 january 2023
  * @brief   Template generating plain C code for the implementation of Convolutional Neural Networks on MCU
  */

#ifndef _MAX_POOLING1D_62_H_
#define _MAX_POOLING1D_62_H_

#ifndef SINGLE_FILE
#include "number.h"
#endif

#define INPUT_CHANNELS  16
#define INPUT_SAMPLES   421
#define POOL_SIZE       4
#define POOL_STRIDE     2
#define POOL_PAD        0 // Unsupported
#define POOL_LENGTH	    ( ( (INPUT_SAMPLES - POOL_SIZE + (2*POOL_PAD) ) / POOL_STRIDE ) + 1 )

typedef float max_pooling1d_62_output_type[POOL_LENGTH][INPUT_CHANNELS];

#if 0
void max_pooling1d_62(
  const number_t input[INPUT_SAMPLES][INPUT_CHANNELS], 	    // IN
  number_t output[POOL_LENGTH][INPUT_CHANNELS]); 	// OUT
#endif

#undef INPUT_CHANNELS  
#undef INPUT_SAMPLES
#undef POOL_SIZE
#undef POOL_STRIDE
#undef POOL_PAD
#undef POOL_LENGTH

#endif//_MAX_POOLING1D_62_H_
/**
  ******************************************************************************
  * @file    maxpool.cc
  * @author  Pierre-Emmanuel Novac <penovac@unice.fr>, LEAT, CNRS, Université Côte d'Azur, France
  * @version 1.0.0
  * @date    24 march 2020
  * @brief   Template generating plain C code for the implementation of Convolutional Neural Networks on MCU
  */

#ifndef SINGLE_FILE
#include "max_pooling1d_62.h"
#include "number.h"
#endif

#ifdef WITH_CMSIS_NN
#include "arm_nnfunctions.h"
#endif

#define INPUT_CHANNELS  16
#define INPUT_SAMPLES   421
#define POOL_SIZE       4
#define POOL_STRIDE     2
#define POOL_PAD        0 // Unsupported
#define POOL_LENGTH	    ( ( (INPUT_SAMPLES - POOL_SIZE + (2*POOL_PAD) ) / POOL_STRIDE ) + 1 )

#define ACTIVATION_LINEAR

// For fixed point quantization
#define INPUT_SCALE_FACTOR 0
#define OUTPUT_SCALE_FACTOR 0
#define OUTPUT_ROUND_MODE ROUND_MODE_NONE
#define NUMBER_T float
#define LONG_NUMBER_T float


static inline void max_pooling1d_62(
  const NUMBER_T input[INPUT_SAMPLES][INPUT_CHANNELS], 	    // IN
  NUMBER_T output[POOL_LENGTH][INPUT_CHANNELS]) {	// OUT

  unsigned short pos_x, k; 	// loop indexes for output volume
  unsigned int x;
  static LONG_NUMBER_T max[INPUT_CHANNELS];

  for (pos_x = 0; pos_x < POOL_LENGTH; pos_x++) {
    for (k = 0; k < INPUT_CHANNELS; k++) {
#ifdef ACTIVATION_LINEAR
      max[k] = input[pos_x*POOL_STRIDE][k];
      x = 1;
#elif defined(ACTIVATION_RELU)
      max[k] = 0;
      x = 0;
#else
#error "Unsupported activation function"
#endif
    }

    for (; x < POOL_SIZE; x++) {
      for (k = 0; k < INPUT_CHANNELS; k++) {
        if (max[k] < input[(pos_x * POOL_STRIDE) + x][k])
          max[k] = input[(pos_x * POOL_STRIDE) + x][k];
      }
    }

    for (k = 0; k < INPUT_CHANNELS; k++) {
      output[pos_x][k] = scale_and_clamp_to(NUMBER_T, max[k], INPUT_SCALE_FACTOR - OUTPUT_SCALE_FACTOR, OUTPUT_ROUND_MODE);
    }
  }
}

#undef INPUT_CHANNELS  
#undef INPUT_SAMPLES
#undef POOL_SIZE
#undef POOL_STRIDE
#undef POOL_PAD
#undef POOL_LENGTH
#undef ACTIVATION_LINEAR
#undef INPUT_SCALE_FACTOR
#undef OUTPUT_SCALE_FACTOR
#undef NUMBER_T
#undef LONG_NUMBER_T
/**
  ******************************************************************************
  * @file    conv1d.hh
  * @author  Pierre-Emmanuel Novac <penovac@unice.fr>, LEAT, CNRS, Université Côte d'Azur, France
  * @version V2.0
  * @date    24 january 2023
  * @brief   Template generating plain C code for the implementation of Convolutional Neural Networks on MCU
  */

#ifndef _CONV1D_109_H_
#define _CONV1D_109_H_

#ifndef SINGLE_FILE
#include "number.h"
#endif

#define INPUT_CHANNELS      16
#define INPUT_SAMPLES       209
#define CONV_FILTERS        32
#define CONV_KERNEL_SIZE    3
#define CONV_STRIDE         1

#define ZEROPADDING_LEFT    0
#define ZEROPADDING_RIGHT   0

#define CONV_OUTSAMPLES     ( ( (INPUT_SAMPLES - CONV_KERNEL_SIZE + ZEROPADDING_LEFT + ZEROPADDING_RIGHT) / CONV_STRIDE ) + 1 )

typedef float conv1d_109_output_type[CONV_OUTSAMPLES][CONV_FILTERS];

#if 0
void conv1d_109(
  const number_t input[INPUT_SAMPLES][INPUT_CHANNELS],                    // IN
  const number_t kernel[CONV_FILTERS][CONV_KERNEL_SIZE][INPUT_CHANNELS],  // IN

  const number_t bias[CONV_FILTERS],						                          // IN

  number_t output[CONV_OUTSAMPLES][CONV_FILTERS]);                       // OUT
#endif

#undef INPUT_CHANNELS
#undef INPUT_SAMPLES
#undef CONV_FILTERS
#undef CONV_KERNEL_SIZE
#undef CONV_STRIDE
#undef ZEROPADDING_LEFT
#undef ZEROPADDING_RIGHT
#undef CONV_OUTSAMPLES

#endif//_CONV1D_109_H_
/**
  ******************************************************************************
  * @file    conv.cc
  * @author  Sébastien Bilavarn, LEAT, CNRS, Université Côte d'Azur, France
  * @author  Pierre-Emmanuel Novac <penovac@unice.fr>, LEAT, CNRS, Université Côte d'Azur, France
  * @version V2.0
  * @date    24 march 2020
  * @brief   Template generating plain C code for the implementation of Convolutional Neural Networks on MCU
  */

#ifndef SINGLE_FILE
#include "conv1d_109.h"
#include "number.h"
#endif

#ifdef WITH_CMSIS_NN
#include "arm_nnfunctions.h"
#elif defined(WITH_NMSIS_NN)
#include "riscv_nnfunctions.h"
#endif

#define INPUT_CHANNELS      16
#define INPUT_SAMPLES       209
#define CONV_FILTERS        32
#define CONV_KERNEL_SIZE    3
#define CONV_STRIDE         1
#define CONV_GROUPS         1
#define CHANNELS_PER_GROUP  (INPUT_CHANNELS / CONV_GROUPS)
#define FILTERS_PER_GROUP   (CONV_FILTERS / CONV_GROUPS)

#define ZEROPADDING_LEFT    0
#define ZEROPADDING_RIGHT   0

#define CONV_OUTSAMPLES     ( ( (INPUT_SAMPLES - CONV_KERNEL_SIZE + ZEROPADDING_LEFT + ZEROPADDING_RIGHT) / CONV_STRIDE ) + 1 )

#define ACTIVATION_RELU

// For fixed point quantization
#define WEIGHTS_SCALE_FACTOR 0
#define BIASES_SCALE_FACTOR 0
#define TMP_SCALE_FACTOR 0
#define INPUT_SCALE_FACTOR 0
#define OUTPUT_SCALE_FACTOR 0
#define OUTPUT_ROUND_MODE ROUND_MODE_NONE
#define NUMBER_T float
#define LONG_NUMBER_T float


static inline void conv1d_109(
  const NUMBER_T input[INPUT_SAMPLES][INPUT_CHANNELS],                    // IN
  const NUMBER_T kernel[CONV_FILTERS][CONV_KERNEL_SIZE][INPUT_CHANNELS / CONV_GROUPS],  // IN

  const NUMBER_T bias[CONV_FILTERS],						                          // IN

  NUMBER_T output[CONV_OUTSAMPLES][CONV_FILTERS]) {                       // OUT

#if !defined(WITH_CMSIS_NN) && !defined(WITH_NMSIS_NN)
  unsigned short pos_x, z, k; 	// loop indexes for output volume
  unsigned short x;
  int input_x;
  LONG_NUMBER_T output_acc;

  for (pos_x = 0; pos_x < CONV_OUTSAMPLES; pos_x++) { 
    for (k = 0; k < CONV_FILTERS; k++) { 
      output_acc = 0;

      for (x = 0; x < CONV_KERNEL_SIZE; x++) {
        input_x = pos_x * CONV_STRIDE - ZEROPADDING_LEFT + x;

        if (input_x >= 0 && input_x < INPUT_SAMPLES) { // ZeroPadding1D
          for (z = 0; z < INPUT_CHANNELS / CONV_GROUPS; z++) {
            output_acc += (LONG_NUMBER_T)input[input_x][z + (k / FILTERS_PER_GROUP) * CHANNELS_PER_GROUP] * (LONG_NUMBER_T)kernel[k][x][z];
          }
        }
      }

    // Scale for possible additional precision of bias
    output_acc = scale(NUMBER_T, output_acc, WEIGHTS_SCALE_FACTOR - TMP_SCALE_FACTOR, OUTPUT_ROUND_MODE);

    // Scale bias to match accumulator
    output_acc += scale(NUMBER_T, (LONG_NUMBER_T)bias[k], BIASES_SCALE_FACTOR - TMP_SCALE_FACTOR - INPUT_SCALE_FACTOR, OUTPUT_ROUND_MODE);

      
#ifdef ACTIVATION_LINEAR
      output[pos_x][k] = scale_and_clamp_to(NUMBER_T, output_acc, INPUT_SCALE_FACTOR + TMP_SCALE_FACTOR - OUTPUT_SCALE_FACTOR, OUTPUT_ROUND_MODE);
#elif defined(ACTIVATION_RELU) || defined(ACTIVATION_RELU6)
      // Activation function: ReLU
      if (output_acc < 0) {
        output[pos_x][k] = 0;
      } else {
#if defined(ACTIVATION_RELU6)
        if (output_acc > scale(NUMBER_T, 6, -(INPUT_SCALE_FACTOR + TMP_SCALE_FACTOR), OUTPUT_ROUND_MODE)) {
          output_acc = scale(NUMBER_T, 6, -(INPUT_SCALE_FACTOR + TMP_SCALE_FACTOR), OUTPUT_ROUND_MODE);
        }
#endif
        output[pos_x][k] = scale_and_clamp_to(NUMBER_T, output_acc, INPUT_SCALE_FACTOR + TMP_SCALE_FACTOR - OUTPUT_SCALE_FACTOR, OUTPUT_ROUND_MODE);
      }
#else
#error "Unsupported activation function"
#endif
    }
  }

#else

#if BIASES_SCALE_FACTOR > WEIGHTS_SCALE_FACTOR
#error "CMSIS-NN does not support BIASES_SCALE_FACTOR larger than WEIGHTS_SCALE_FACTOR"
#endif

#error "Data type unsupported by CMSIS-NN"

#endif
}

#undef INPUT_CHANNELS
#undef INPUT_SAMPLES
#undef CONV_FILTERS
#undef CONV_KERNEL_SIZE
#undef CONV_STRIDE
#undef CONV_GROUPS
#undef CHANNELS_PER_GROUP
#undef FILTERS_PER_GROUP
#undef ZEROPADDING_LEFT
#undef ZEROPADDING_RIGHT
#undef CONV_OUTSAMPLES
#undef ACTIVATION_RELU
#undef WEIGHTS_SCALE_FACTOR
#undef BIASES_SCALE_FACTOR
#undef TMP_SCALE_FACTOR
#undef INPUT_SCALE_FACTOR
#undef OUTPUT_SCALE_FACTOR
#undef NUMBER_T
#undef LONG_NUMBER_T
/**
  ******************************************************************************
  * @file    weights/conv1d.cc
  * @author  Pierre-Emmanuel Novac <penovac@unice.fr>, LEAT, CNRS, Université Côte d'Azur, France
  * @version 1.0.0
  * @date    24 march 2020
  * @brief   Template generating plain C code for the implementation of Convolutional Neural Networks on MCU
  */

#include <stdint.h>

#define INPUT_CHANNELS    16
#define CONV_FILTERS      32
#define CONV_KERNEL_SIZE  3
#define CONV_GROUPS       1


const float  conv1d_109_bias[CONV_FILTERS] = {0x1.d2fd1a0000000p-8, 0x1.d132f00000000p-6, 0x1.1f25540000000p-7, 0x1.6bf6880000000p-7, 0x1.232e8e0000000p-10, 0x1.217bb40000000p-6, 0x1.06c1420000000p-5, 0x1.4e216e0000000p-6, 0x1.487ed20000000p-6, 0x1.562f940000000p-6, 0x1.ba99cc0000000p-6, -0x1.4124ae0000000p-8, 0x1.103dd20000000p-8, 0x1.bcde820000000p-7, 0x1.04418a0000000p-7, 0x1.84e2920000000p-6, 0x1.eb239e0000000p-6, 0x1.5cf9b60000000p-7, 0x1.ccf4da0000000p-7, 0x1.ea0bda0000000p-6, 0x1.26ae320000000p-9, -0x1.c0e9ba0000000p-8, -0x1.4a2a8c0000000p-6, 0x1.ee05ee0000000p-10, 0x1.41e80c0000000p-6, 0x1.cecb9c0000000p-6, 0x1.4919320000000p-5, 0x1.aba3620000000p-7, 0x1.04e7320000000p-6, 0x1.0606860000000p-7, 0x1.5f5cd40000000p-8, 0x1.549f200000000p-6}
;

const float  conv1d_109_kernel[CONV_FILTERS][CONV_KERNEL_SIZE][INPUT_CHANNELS / CONV_GROUPS] = {{{0x1.1111f00000000p-3, -0x1.7edaaa0000000p-3, 0x1.99ee160000000p-3, -0x1.cd43220000000p-6, -0x1.3727060000000p-3, -0x1.92d51a0000000p-6, -0x1.32b4520000000p-3, -0x1.a166740000000p-4, -0x1.50a3740000000p-4, 0x1.51eb800000000p-4, -0x1.8af9040000000p-3, -0x1.70e8120000000p-4, -0x1.8c3abc0000000p-3, 0x1.3c725c0000000p-3, -0x1.17dfc40000000p-5, 0x1.9dee580000000p-3}
, {-0x1.17fe5e0000000p-4, -0x1.0cc39c0000000p-4, 0x1.7870f20000000p-3, 0x1.18bb980000000p-3, -0x1.1c762a0000000p-7, -0x1.0f85320000000p-3, 0x1.1df50c0000000p-3, -0x1.969ee00000000p-5, 0x1.baec840000000p-5, -0x1.eeb5860000000p-4, -0x1.611c320000000p-3, 0x1.d9d7ea0000000p-6, -0x1.277f0a0000000p-3, 0x1.f009540000000p-4, 0x1.63c8e00000000p-9, 0x1.7163c20000000p-6}
, {-0x1.d8ee920000000p-7, 0x1.3e3d700000000p-3, 0x1.f9aa040000000p-6, 0x1.113f640000000p-4, 0x1.3ed63e0000000p-6, -0x1.0e0c240000000p-6, -0x1.5e4b080000000p-5, -0x1.9b24f40000000p-3, 0x1.efeb7a0000000p-8, 0x1.44775a0000000p-3, 0x1.61f4c00000000p-3, 0x1.7cc1920000000p-6, -0x1.3e48960000000p-3, 0x1.3730dc0000000p-4, 0x1.0a2aa00000000p-10, 0x1.ee6dd80000000p-5}
}
, {{0x1.6dadf20000000p-3, 0x1.f7edb40000000p-4, 0x1.257fc00000000p-3, -0x1.2a6e620000000p-3, 0x1.21a0bc0000000p-3, 0x1.2e013c0000000p-6, -0x1.e6979e0000000p-4, 0x1.88a35c0000000p-3, 0x1.23a38c0000000p-4, 0x1.7efe0c0000000p-3, -0x1.d603de0000000p-4, -0x1.88e3c60000000p-3, 0x1.a20ee00000000p-4, 0x1.a4cc560000000p-5, -0x1.124b0a0000000p-3, -0x1.5965d40000000p-3}
, {0x1.4990a40000000p-6, -0x1.244a140000000p-6, -0x1.9d71c40000000p-6, -0x1.2c26e60000000p-3, 0x1.69fe740000000p-3, -0x1.2e962a0000000p-4, 0x1.20234e0000000p-5, 0x1.eedd2a0000000p-5, -0x1.2fd5c00000000p-3, -0x1.118ea40000000p-3, -0x1.a1781e0000000p-4, 0x1.5348ec0000000p-3, -0x1.eaf9be0000000p-4, 0x1.4b7f2a0000000p-3, -0x1.f572260000000p-4, -0x1.5441f80000000p-3}
, {0x1.cc5fde0000000p-4, -0x1.397f3c0000000p-3, -0x1.330fb80000000p-3, 0x1.f202ce0000000p-4, -0x1.8d576a0000000p-4, -0x1.4ec2e40000000p-4, 0x1.23d8740000000p-3, 0x1.60ce360000000p-3, -0x1.5a48e20000000p-6, -0x1.45c3900000000p-4, -0x1.c1a58c0000000p-5, -0x1.a0cbb20000000p-5, 0x1.2f21a40000000p-4, 0x1.d442c40000000p-4, -0x1.39a3480000000p-3, 0x1.8abdb00000000p-5}
}
, {{-0x1.6e24680000000p-3, 0x1.89fe260000000p-3, 0x1.0ca4a40000000p-3, 0x1.0d035c0000000p-7, 0x1.0620300000000p-3, -0x1.248fe60000000p-4, -0x1.1cbcb40000000p-5, -0x1.c018f00000000p-4, 0x1.78d13a0000000p-5, -0x1.3f02020000000p-3, 0x1.011b080000000p-4, -0x1.809c060000000p-4, -0x1.3a3fa60000000p-3, -0x1.3649600000000p-4, -0x1.3fa7cc0000000p-3, -0x1.4c677a0000000p-6}
, {-0x1.62e2e80000000p-3, 0x1.f49e800000000p-5, -0x1.6dbc600000000p-5, 0x1.518baa0000000p-3, -0x1.6d54240000000p-4, -0x1.e041780000000p-5, 0x1.c4e38e0000000p-9, -0x1.ae881e0000000p-5, 0x1.7a50d40000000p-4, -0x1.44f40c0000000p-3, 0x1.004b7a0000000p-3, 0x1.3f7e260000000p-3, -0x1.26b25a0000000p-3, -0x1.09104a0000000p-4, -0x1.3eb08a0000000p-3, 0x1.a74aa20000000p-4}
, {-0x1.f0dd740000000p-4, 0x1.4e65760000000p-5, 0x1.6e87760000000p-4, 0x1.2bd37e0000000p-4, -0x1.6d175e0000000p-4, 0x1.118d140000000p-4, -0x1.48a4540000000p-4, 0x1.7d55be0000000p-5, -0x1.54edfa0000000p-3, 0x1.05f0300000000p-3, -0x1.fcb6420000000p-6, -0x1.ac20120000000p-4, 0x1.a52df80000000p-3, 0x1.6bc3200000000p-3, -0x1.fa2af80000000p-4, -0x1.2838580000000p-6}
}
, {{-0x1.4f14800000000p-3, -0x1.01dfe60000000p-4, 0x1.44771c0000000p-4, -0x1.a9746e0000000p-4, -0x1.541d7c0000000p-3, 0x1.d61a780000000p-7, 0x1.6b95360000000p-5, -0x1.96c73e0000000p-4, 0x1.4ce0de0000000p-3, 0x1.1a46540000000p-3, 0x1.40a7f20000000p-4, 0x1.bb7a0e0000000p-6, -0x1.88ab7c0000000p-3, -0x1.415d6a0000000p-4, -0x1.4ad0b80000000p-5, 0x1.6729660000000p-3}
, {0x1.b9b1540000000p-6, -0x1.40f8f80000000p-4, -0x1.ac17000000000p-4, 0x1.4ae7ae0000000p-5, 0x1.66861c0000000p-4, 0x1.15d8fe0000000p-9, 0x1.2f15b40000000p-5, -0x1.5746ea0000000p-7, -0x1.8122e60000000p-5, 0x1.ec5fc80000000p-4, -0x1.750bae0000000p-4, 0x1.6c542a0000000p-6, -0x1.779ca00000000p-3, 0x1.363afe0000000p-4, 0x1.8670560000000p-5, 0x1.5049a80000000p-5}
, {0x1.4669820000000p-3, -0x1.10aef00000000p-5, 0x1.1006b80000000p-3, -0x1.c29a000000000p-6, -0x1.95d0860000000p-6, 0x1.5de61c0000000p-3, 0x1.434e360000000p-9, -0x1.c88f920000000p-5, -0x1.14bfd60000000p-3, -0x1.437a8c0000000p-3, 0x1.ba82d60000000p-5, 0x1.300d0a0000000p-3, 0x1.0d1bae0000000p-3, -0x1.6f17bc0000000p-3, 0x1.9988d60000000p-4, -0x1.a3b7a20000000p-3}
}
, {{-0x1.3fb9da0000000p-3, -0x1.7af4540000000p-4, -0x1.58aa0c0000000p-3, 0x1.4df3840000000p-3, -0x1.17af500000000p-3, -0x1.a706080000000p-4, 0x1.a6aa120000000p-7, 0x1.6671c80000000p-4, -0x1.7a65840000000p-3, -0x1.50d7f80000000p-3, -0x1.ee00800000000p-5, -0x1.8d603e0000000p-3, 0x1.0bf4520000000p-3, 0x1.a032800000000p-3, 0x1.6d16820000000p-4, -0x1.9772a00000000p-3}
, {-0x1.1cce580000000p-4, -0x1.2675b60000000p-3, -0x1.29a8fa0000000p-3, -0x1.7042840000000p-5, 0x1.6ac9920000000p-3, 0x1.6852220000000p-4, 0x1.d68ecc0000000p-4, 0x1.8a43b80000000p-4, -0x1.561f260000000p-4, 0x1.47e7340000000p-5, -0x1.ada77c0000000p-4, -0x1.9795640000000p-3, -0x1.6dc7680000000p-3, 0x1.7f12240000000p-3, -0x1.13412c0000000p-6, 0x1.3f8e680000000p-3}
, {0x1.91bcd00000000p-6, -0x1.7abc440000000p-3, -0x1.94c90a0000000p-6, -0x1.8756b80000000p-3, -0x1.210d9e0000000p-4, 0x1.ecbbea0000000p-5, -0x1.6cc0de0000000p-4, -0x1.06da880000000p-3, -0x1.7b12480000000p-4, 0x1.7e8a8a0000000p-3, 0x1.75f2560000000p-3, -0x1.7573500000000p-4, -0x1.8587ec0000000p-3, 0x1.5e20100000000p-8, -0x1.4142fa0000000p-3, 0x1.204a100000000p-9}
}
, {{0x1.7637ca0000000p-3, 0x1.7472620000000p-3, -0x1.c237320000000p-4, 0x1.33858c0000000p-4, -0x1.34610c0000000p-3, -0x1.7b5a4e0000000p-7, 0x1.8dbf000000000p-7, -0x1.ef2dd60000000p-6, 0x1.7e5d600000000p-3, -0x1.aa72480000000p-3, -0x1.2cbece0000000p-3, 0x1.efe3a40000000p-4, 0x1.0874740000000p-3, -0x1.a2db000000000p-5, -0x1.ec15360000000p-4, 0x1.1be5740000000p-4}
, {0x1.ba6e4e0000000p-4, 0x1.e1b0b60000000p-4, -0x1.1628fa0000000p-5, -0x1.4de8460000000p-11, 0x1.bdf2960000000p-8, -0x1.1097bc0000000p-7, -0x1.88d2700000000p-3, 0x1.3e8d460000000p-3, -0x1.7750ee0000000p-3, -0x1.26cdaa0000000p-3, 0x1.763ffa0000000p-3, 0x1.09ceb00000000p-3, -0x1.cb796e0000000p-3, 0x1.187c2e0000000p-5, 0x1.af94f80000000p-4, -0x1.86aaae0000000p-4}
, {-0x1.3d2e720000000p-3, -0x1.b4d2f80000000p-4, 0x1.18f3020000000p-5, 0x1.2ee1b40000000p-4, 0x1.e6b8b00000000p-4, -0x1.a16b920000000p-5, -0x1.1aab400000000p-3, -0x1.21a4080000000p-3, 0x1.3658600000000p-3, -0x1.16d8180000000p-3, 0x1.e890920000000p-4, 0x1.53eace0000000p-3, -0x1.e505c80000000p-4, 0x1.f0e3980000000p-4, 0x1.1936aa0000000p-4, -0x1.3fd1920000000p-3}
}
, {{0x1.1ac7d80000000p-3, 0x1.46ea4c0000000p-5, 0x1.1359a60000000p-3, 0x1.134ccc0000000p-3, -0x1.e821380000000p-4, 0x1.1f1cdc0000000p-6, -0x1.8abfbe0000000p-4, -0x1.6a9cda0000000p-4, -0x1.1ed1220000000p-3, -0x1.bb06d00000000p-5, -0x1.2ed4860000000p-3, 0x1.01d9c40000000p-5, 0x1.dc6af60000000p-4, -0x1.0aeb1a0000000p-4, -0x1.4c7e2a0000000p-3, 0x1.f58c3c0000000p-7}
, {0x1.ec23380000000p-5, 0x1.2985440000000p-5, -0x1.5e9a980000000p-3, -0x1.e7fc500000000p-6, 0x1.60ff5a0000000p-3, -0x1.9887860000000p-4, -0x1.49d7940000000p-6, 0x1.6bcdd80000000p-3, -0x1.61648a0000000p-3, 0x1.31c6c80000000p-3, -0x1.69e7220000000p-5, -0x1.0b7fe20000000p-7, -0x1.865c500000000p-3, -0x1.e86cbe0000000p-4, 0x1.39fa580000000p-11, 0x1.8553fe0000000p-6}
, {0x1.5f1b300000000p-3, -0x1.5beaba0000000p-4, -0x1.4ac3560000000p-3, -0x1.5a73580000000p-3, 0x1.5172100000000p-4, 0x1.c008e00000000p-4, -0x1.ba6d9c0000000p-4, -0x1.5da7f00000000p-3, -0x1.78ca440000000p-3, -0x1.ee0b800000000p-4, 0x1.5c98440000000p-3, 0x1.ab218c0000000p-4, -0x1.b38ccc0000000p-4, -0x1.790e7c0000000p-3, 0x1.817efa0000000p-4, 0x1.1e41140000000p-3}
}
, {{0x1.987b500000000p-4, 0x1.3404a00000000p-3, -0x1.11d56e0000000p-3, -0x1.287f920000000p-3, 0x1.59f3920000000p-3, -0x1.2d65de0000000p-3, 0x1.0de29e0000000p-7, -0x1.939d660000000p-4, -0x1.b08c040000000p-4, 0x1.0e758c0000000p-7, -0x1.8db3000000000p-3, -0x1.669c9a0000000p-3, 0x1.904e1c0000000p-3, 0x1.4ed85a0000000p-3, -0x1.8702180000000p-3, 0x1.53524e0000000p-5}
, {0x1.352b5e0000000p-3, -0x1.334ad60000000p-3, 0x1.378db00000000p-3, 0x1.187e7a0000000p-3, -0x1.6db6020000000p-3, -0x1.d2db720000000p-4, -0x1.ab960a0000000p-4, 0x1.7b1b220000000p-5, 0x1.7e96260000000p-4, 0x1.b2d3b60000000p-4, -0x1.4efa060000000p-3, -0x1.1cc3640000000p-3, -0x1.ffd15c0000000p-5, 0x1.7c83c60000000p-4, 0x1.75a77c0000000p-4, 0x1.aafa640000000p-4}
, {0x1.a64d320000000p-6, 0x1.3e05f80000000p-5, -0x1.7848b80000000p-3, 0x1.eb0c100000000p-6, 0x1.c610ba0000000p-4, 0x1.0ce3dc0000000p-5, -0x1.3e2e980000000p-5, 0x1.0360a20000000p-3, -0x1.13e0ae0000000p-3, 0x1.0357a20000000p-4, 0x1.822f840000000p-4, 0x1.2b674e0000000p-3, -0x1.19c5f20000000p-3, 0x1.07e4720000000p-3, -0x1.c362a20000000p-3, 0x1.640bd80000000p-4}
}
, {{-0x1.919ad60000000p-3, 0x1.9fafa80000000p-4, -0x1.cdd5500000000p-4, -0x1.16dc2c0000000p-3, -0x1.1bd0d20000000p-6, 0x1.22cdbe0000000p-3, 0x1.70b9300000000p-3, 0x1.1206e60000000p-4, 0x1.10e4340000000p-4, -0x1.398a020000000p-4, 0x1.8951420000000p-4, -0x1.e11b680000000p-4, -0x1.dc7fdc0000000p-7, -0x1.38e3280000000p-4, -0x1.687be40000000p-4, 0x1.0ebc560000000p-3}
, {0x1.0270ac0000000p-3, -0x1.cbcafc0000000p-5, -0x1.4f4d7c0000000p-3, -0x1.64dfcc0000000p-4, 0x1.11410a0000000p-3, -0x1.5df4ba0000000p-3, 0x1.90d1da0000000p-4, -0x1.45e4ae0000000p-4, 0x1.9bf6d80000000p-5, -0x1.7d82980000000p-3, 0x1.545c320000000p-3, 0x1.31b44c0000000p-3, 0x1.cb51840000000p-4, -0x1.9cb7e60000000p-3, 0x1.b4cdc60000000p-3, -0x1.6e49f20000000p-3}
, {0x1.486ec40000000p-5, -0x1.08a7860000000p-3, 0x1.1b2c0c0000000p-3, 0x1.2701b60000000p-4, -0x1.1fbea40000000p-6, 0x1.44a74c0000000p-12, 0x1.8212f00000000p-4, -0x1.2ab6480000000p-3, -0x1.bda7660000000p-5, 0x1.7130be0000000p-3, 0x1.11c0040000000p-4, -0x1.7d766c0000000p-5, 0x1.1028300000000p-5, -0x1.94440c0000000p-5, 0x1.05543e0000000p-5, 0x1.de315a0000000p-4}
}
, {{0x1.484adc0000000p-4, 0x1.8b736e0000000p-7, -0x1.34fd260000000p-7, -0x1.47208a0000000p-3, -0x1.8161320000000p-3, -0x1.db2b000000000p-4, -0x1.b6b61a0000000p-3, -0x1.150e340000000p-4, 0x1.c3e43a0000000p-4, -0x1.70aa7e0000000p-5, -0x1.7c767c0000000p-4, -0x1.82cf140000000p-3, 0x1.6929420000000p-3, -0x1.95fdaa0000000p-3, -0x1.3338780000000p-3, -0x1.3a64e80000000p-3}
, {0x1.b9c8c60000000p-4, -0x1.d39aa00000000p-5, 0x1.04847a0000000p-3, -0x1.943c980000000p-5, 0x1.83dd360000000p-5, -0x1.c0a9340000000p-6, 0x1.b4cc680000000p-5, 0x1.e97ec20000000p-4, -0x1.6e2c940000000p-5, 0x1.d425d80000000p-15, -0x1.e47c460000000p-5, -0x1.3d0fb40000000p-3, -0x1.93ebd40000000p-4, 0x1.7f99de0000000p-5, -0x1.d976520000000p-4, 0x1.83ce0e0000000p-3}
, {0x1.3813080000000p-5, 0x1.35954a0000000p-3, -0x1.6aaed00000000p-3, 0x1.8063c40000000p-3, -0x1.18b7940000000p-5, 0x1.ff66800000000p-8, -0x1.a631b00000000p-6, 0x1.80bce00000000p-5, 0x1.75a5320000000p-3, 0x1.2ab5e20000000p-3, -0x1.a267a40000000p-3, -0x1.5a33e60000000p-4, -0x1.49d8a80000000p-5, 0x1.3a32980000000p-5, 0x1.c8bb540000000p-4, 0x1.6f0dae0000000p-6}
}
, {{0x1.6fb4580000000p-3, -0x1.4b68e80000000p-7, 0x1.cfe5f80000000p-4, -0x1.e3b51c0000000p-4, -0x1.4164080000000p-3, -0x1.0f53ca0000000p-3, 0x1.39a7c40000000p-5, -0x1.366c2a0000000p-4, -0x1.1b6fa40000000p-3, -0x1.e5cc400000000p-5, -0x1.1abec80000000p-4, -0x1.b332520000000p-4, -0x1.5722f20000000p-3, -0x1.53a47e0000000p-3, 0x1.343afa0000000p-10, -0x1.09d8640000000p-3}
, {-0x1.63be5a0000000p-3, 0x1.8e8d900000000p-4, -0x1.1d16100000000p-5, -0x1.3d4e080000000p-4, 0x1.7286ae0000000p-3, 0x1.5a50a60000000p-4, 0x1.7ce57c0000000p-8, -0x1.33fb5e0000000p-6, -0x1.d302600000000p-5, 0x1.9fc3e80000000p-3, -0x1.f899d00000000p-7, -0x1.8e0ba80000000p-3, 0x1.a0dc060000000p-3, 0x1.370e5e0000000p-3, 0x1.0e87640000000p-3, 0x1.52b1160000000p-3}
, {-0x1.d319500000000p-5, 0x1.ef74740000000p-4, -0x1.42e72a0000000p-3, -0x1.059d740000000p-3, 0x1.fa83080000000p-4, -0x1.3c6e220000000p-4, 0x1.a7efc80000000p-5, -0x1.62675c0000000p-3, 0x1.7318740000000p-4, 0x1.729a620000000p-4, 0x1.0f235c0000000p-3, -0x1.c136920000000p-5, -0x1.d1a0360000000p-5, 0x1.8bf5880000000p-6, -0x1.1403780000000p-4, 0x1.a104040000000p-7}
}
, {{0x1.6a8d6c0000000p-3, 0x1.27d90e0000000p-10, -0x1.163a2c0000000p-3, -0x1.99355a0000000p-10, -0x1.210ff60000000p-9, -0x1.5c2cfa0000000p-7, -0x1.f4573e0000000p-5, -0x1.eb4bce0000000p-4, 0x1.0e6d980000000p-3, 0x1.477b500000000p-3, 0x1.5816140000000p-4, -0x1.4988be0000000p-4, 0x1.d33aee0000000p-5, -0x1.0ac6720000000p-4, -0x1.446e8a0000000p-8, -0x1.f1c4000000000p-5}
, {-0x1.f4e1e80000000p-5, 0x1.aa678a0000000p-10, 0x1.2ecf7a0000000p-4, -0x1.5c8fa80000000p-4, -0x1.87a2e80000000p-3, 0x1.6c4c940000000p-5, -0x1.9537ec0000000p-3, 0x1.cd00fe0000000p-3, -0x1.e33adc0000000p-7, -0x1.d7b55e0000000p-4, 0x1.7a62140000000p-4, 0x1.e52e560000000p-5, -0x1.7ba7000000000p-4, -0x1.17ed7e0000000p-5, 0x1.0b26780000000p-4, -0x1.d6ce6c0000000p-4}
, {0x1.838cae0000000p-3, -0x1.eb646e0000000p-4, -0x1.8bcbec0000000p-3, -0x1.8090ee0000000p-4, -0x1.1b489e0000000p-3, 0x1.5ce1520000000p-4, -0x1.8de9440000000p-4, 0x1.67d5dc0000000p-3, -0x1.1044980000000p-4, -0x1.d339ee0000000p-4, -0x1.537ef20000000p-4, 0x1.6fb9f00000000p-3, 0x1.69302c0000000p-4, -0x1.cd17e00000000p-6, 0x1.b346fe0000000p-3, 0x1.8d9e3e0000000p-4}
}
, {{0x1.2e06160000000p-5, 0x1.77398c0000000p-4, 0x1.08dede0000000p-3, -0x1.b80cd00000000p-7, 0x1.7166360000000p-4, 0x1.8c50780000000p-3, 0x1.9483200000000p-3, 0x1.be8bf20000000p-4, 0x1.4628d60000000p-5, -0x1.41ce8c0000000p-3, -0x1.2cf9180000000p-6, 0x1.454a440000000p-3, -0x1.08f64a0000000p-3, -0x1.c9ac600000000p-4, -0x1.c27d280000000p-4, 0x1.252b800000000p-4}
, {0x1.1a8f7c0000000p-3, 0x1.11a6aa0000000p-4, 0x1.17a7c40000000p-3, 0x1.a0a41e0000000p-4, 0x1.664a860000000p-5, 0x1.95869c0000000p-3, -0x1.62ced20000000p-6, -0x1.7963500000000p-3, 0x1.4582980000000p-3, -0x1.77af180000000p-5, 0x1.7bdc660000000p-4, -0x1.5580920000000p-3, 0x1.5576e60000000p-4, 0x1.57d85c0000000p-3, 0x1.7232c40000000p-4, 0x1.d1f3a20000000p-7}
, {-0x1.e680480000000p-5, 0x1.1d9da40000000p-4, 0x1.a055da0000000p-3, -0x1.2b87e80000000p-3, -0x1.4f1c040000000p-3, 0x1.c35b4e0000000p-4, 0x1.b5171a0000000p-3, 0x1.033fe60000000p-4, 0x1.0e639e0000000p-3, -0x1.edb8680000000p-4, 0x1.cc2d0c0000000p-4, 0x1.b2c29a0000000p-5, -0x1.9bd1aa0000000p-3, -0x1.1ba4fc0000000p-4, 0x1.b2d7300000000p-4, 0x1.a3e82a0000000p-3}
}
, {{-0x1.95e6c40000000p-9, -0x1.5df7fe0000000p-3, -0x1.ee5c8a0000000p-5, -0x1.5780240000000p-3, 0x1.6cef120000000p-3, -0x1.6a38680000000p-3, -0x1.0bf9500000000p-5, -0x1.2000960000000p-9, -0x1.cf59f80000000p-4, -0x1.8139e20000000p-3, -0x1.018d960000000p-4, -0x1.29fd6e0000000p-4, 0x1.cf83240000000p-4, -0x1.50cc2a0000000p-3, -0x1.97871e0000000p-6, 0x1.c4f94a0000000p-4}
, {-0x1.6e67d60000000p-5, 0x1.be7ad80000000p-4, -0x1.eae8bc0000000p-4, 0x1.96bc260000000p-3, -0x1.b5b7000000000p-4, -0x1.a3dfd40000000p-5, -0x1.a5eaa40000000p-4, -0x1.b572580000000p-4, 0x1.b20b100000000p-3, 0x1.6ff8e20000000p-4, 0x1.9ea5720000000p-4, 0x1.81ddae0000000p-5, -0x1.2d09a60000000p-3, 0x1.3517580000000p-7, 0x1.fb56fc0000000p-4, -0x1.6e80f00000000p-5}
, {0x1.c0834c0000000p-4, 0x1.6e9ab80000000p-6, -0x1.963d780000000p-3, -0x1.6e2d4e0000000p-3, 0x1.744e520000000p-3, -0x1.1b9c520000000p-3, 0x1.22d3be0000000p-4, -0x1.0998d60000000p-3, 0x1.5d916a0000000p-3, 0x1.3ba2d40000000p-4, 0x1.33ccea0000000p-3, 0x1.9b58260000000p-3, -0x1.22808c0000000p-3, -0x1.633de80000000p-4, 0x1.2ca2300000000p-3, 0x1.a8da9c0000000p-5}
}
, {{0x1.11ed300000000p-3, -0x1.7e3b8e0000000p-4, -0x1.8d94240000000p-3, -0x1.84f9120000000p-3, -0x1.50ce480000000p-4, 0x1.b657720000000p-5, -0x1.6c45180000000p-6, -0x1.0f07b80000000p-6, -0x1.5f0da60000000p-4, -0x1.a5bba60000000p-5, -0x1.3a299c0000000p-3, -0x1.3845a60000000p-8, -0x1.9ba9f00000000p-5, -0x1.56928e0000000p-5, -0x1.64236a0000000p-6, 0x1.4b10400000000p-3}
, {0x1.3cc8ec0000000p-4, -0x1.592ca20000000p-6, 0x1.90ef580000000p-4, 0x1.95475a0000000p-6, 0x1.b01ec20000000p-4, 0x1.9932f80000000p-4, 0x1.e633c40000000p-5, -0x1.44fbc40000000p-5, -0x1.52ffde0000000p-3, 0x1.3fe02a0000000p-3, -0x1.724f220000000p-4, 0x1.77ebb40000000p-3, 0x1.68cb9c0000000p-9, -0x1.6b1f5a0000000p-3, 0x1.d36a720000000p-3, 0x1.22584a0000000p-6}
, {-0x1.3d344c0000000p-3, 0x1.87d0860000000p-4, -0x1.16433a0000000p-4, -0x1.0f35e40000000p-3, 0x1.2244720000000p-4, 0x1.7d00460000000p-4, -0x1.d694ca0000000p-4, -0x1.9cf6640000000p-3, 0x1.7001b20000000p-3, 0x1.19a3400000000p-3, -0x1.5a23ae0000000p-4, -0x1.58c2680000000p-3, 0x1.2822640000000p-6, 0x1.e69e8a0000000p-5, 0x1.0229a80000000p-3, 0x1.06ede40000000p-3}
}
, {{0x1.8a8db40000000p-5, 0x1.20358a0000000p-4, -0x1.ab0bf80000000p-5, -0x1.b82b520000000p-6, -0x1.662ec40000000p-3, -0x1.0661120000000p-3, -0x1.7310d40000000p-4, 0x1.749c7c0000000p-3, 0x1.8eb6820000000p-7, 0x1.3d90b00000000p-3, 0x1.dfedac0000000p-8, -0x1.3687e60000000p-5, 0x1.48aa480000000p-3, -0x1.3734d80000000p-3, 0x1.bb70160000000p-6, 0x1.50bf3a0000000p-3}
, {0x1.d7a2da0000000p-5, 0x1.f859520000000p-6, 0x1.5054b80000000p-4, -0x1.0850780000000p-5, -0x1.ff91d40000000p-4, -0x1.a63f960000000p-4, 0x1.ba36e40000000p-4, -0x1.e5066c0000000p-7, 0x1.2b461c0000000p-3, -0x1.080db80000000p-5, -0x1.07f4ac0000000p-4, 0x1.ee0bdc0000000p-5, -0x1.35f4720000000p-3, 0x1.04abf40000000p-4, -0x1.787f940000000p-3, 0x1.173dd40000000p-3}
, {-0x1.9ca5bc0000000p-7, -0x1.376f260000000p-3, -0x1.7260020000000p-4, -0x1.9b1ac80000000p-5, 0x1.c45ce80000000p-4, -0x1.6117f20000000p-5, -0x1.7021b00000000p-3, -0x1.e0d6e20000000p-6, 0x1.4394860000000p-3, -0x1.d96c3e0000000p-4, -0x1.34aa800000000p-7, 0x1.c58bf20000000p-5, -0x1.5702740000000p-3, 0x1.34f9f00000000p-3, 0x1.3133460000000p-6, -0x1.9812cc0000000p-4}
}
, {{0x1.8343520000000p-3, 0x1.d9838a0000000p-4, -0x1.0023e20000000p-4, 0x1.ff64f40000000p-5, 0x1.b2ef8e0000000p-5, 0x1.334ec80000000p-3, -0x1.5fa56a0000000p-3, 0x1.6216a80000000p-7, -0x1.0e271c0000000p-3, 0x1.58635c0000000p-3, -0x1.c6d4320000000p-4, -0x1.7710520000000p-5, -0x1.26a32a0000000p-3, -0x1.8aab860000000p-3, 0x1.55d2fa0000000p-7, 0x1.c57cfa0000000p-4}
, {-0x1.d520220000000p-5, -0x1.3217dc0000000p-3, -0x1.180dbe0000000p-5, 0x1.5ad40a0000000p-4, -0x1.5fa8f40000000p-3, -0x1.df70220000000p-4, 0x1.2968e60000000p-3, 0x1.1d28bc0000000p-4, 0x1.c4600c0000000p-6, 0x1.96e0e20000000p-5, -0x1.49e0c00000000p-4, -0x1.9cfc400000000p-5, -0x1.acd9d40000000p-3, 0x1.12581c0000000p-4, 0x1.183ca60000000p-6, -0x1.5f8a7a0000000p-4}
, {-0x1.94cd960000000p-3, -0x1.a575c40000000p-7, -0x1.dbe5a00000000p-4, 0x1.1e85260000000p-5, -0x1.099c2a0000000p-3, 0x1.04d1a80000000p-4, 0x1.9bf5a80000000p-6, 0x1.5b1d1a0000000p-3, 0x1.a5c50e0000000p-4, 0x1.d119a60000000p-4, 0x1.8abbfa0000000p-6, 0x1.b7e7ba0000000p-4, -0x1.5171ba0000000p-4, -0x1.1b3f040000000p-5, -0x1.535e440000000p-3, 0x1.9a506a0000000p-4}
}
, {{-0x1.352d500000000p-3, 0x1.5e502a0000000p-3, 0x1.d2b0420000000p-4, -0x1.400d200000000p-3, -0x1.64ffb80000000p-4, -0x1.dfe8ca0000000p-5, 0x1.069ebc0000000p-4, -0x1.4d78180000000p-4, -0x1.8be2480000000p-5, -0x1.1d9bf20000000p-10, -0x1.8a097e0000000p-3, -0x1.8f42860000000p-3, -0x1.1bcf260000000p-5, 0x1.59db660000000p-3, 0x1.a3c3500000000p-4, -0x1.a7493c0000000p-3}
, {0x1.c0d0ba0000000p-4, -0x1.3a85f00000000p-3, -0x1.36c66e0000000p-5, -0x1.dfe7e60000000p-4, -0x1.fd0c300000000p-6, -0x1.0918ac0000000p-8, -0x1.94447a0000000p-3, -0x1.f6173e0000000p-7, 0x1.4152440000000p-7, 0x1.6f35980000000p-5, 0x1.9022760000000p-3, -0x1.79fd6c0000000p-4, -0x1.a5a2a00000000p-5, 0x1.44cfa20000000p-3, 0x1.a0de9e0000000p-3, -0x1.a564f60000000p-4}
, {0x1.374ab20000000p-8, 0x1.32a77c0000000p-4, 0x1.794fae0000000p-3, -0x1.094c920000000p-6, 0x1.1dcf840000000p-9, 0x1.e6740e0000000p-4, -0x1.8d6fd20000000p-6, -0x1.15dc960000000p-7, -0x1.2025d20000000p-5, -0x1.44ac080000000p-5, 0x1.99d0260000000p-3, 0x1.4937d20000000p-3, -0x1.0930c40000000p-4, -0x1.0892d00000000p-3, -0x1.0cbc520000000p-3, -0x1.141a440000000p-6}
}
, {{-0x1.56f3240000000p-3, -0x1.5de72e0000000p-3, -0x1.4d70080000000p-3, -0x1.51038a0000000p-3, -0x1.1162280000000p-6, 0x1.d087a80000000p-4, -0x1.2757620000000p-3, 0x1.18e51e0000000p-3, -0x1.585f1c0000000p-3, -0x1.ebe6560000000p-8, 0x1.03fce20000000p-4, 0x1.a3651a0000000p-4, -0x1.4657d20000000p-3, 0x1.19c5980000000p-5, 0x1.9deb300000000p-5, -0x1.1302380000000p-3}
, {0x1.5e02b00000000p-4, -0x1.a518800000000p-4, 0x1.4de90e0000000p-3, 0x1.645b0a0000000p-3, 0x1.a9a3420000000p-3, 0x1.27f5360000000p-7, 0x1.9d66f00000000p-4, -0x1.a388f80000000p-4, 0x1.8b99500000000p-3, 0x1.89c27c0000000p-3, -0x1.6ba34a0000000p-6, -0x1.7e70dc0000000p-3, 0x1.17195e0000000p-3, 0x1.f295720000000p-4, -0x1.163b560000000p-3, 0x1.8726620000000p-3}
, {-0x1.6746320000000p-6, 0x1.30f4400000000p-3, -0x1.fe3d420000000p-4, 0x1.ed91740000000p-4, 0x1.34ffea0000000p-9, -0x1.6d76480000000p-3, 0x1.083c6e0000000p-3, 0x1.7a14340000000p-4, -0x1.4040fa0000000p-7, -0x1.245d020000000p-4, -0x1.69305c0000000p-6, -0x1.1e484e0000000p-3, -0x1.3156860000000p-4, -0x1.7471600000000p-3, 0x1.6d07700000000p-6, -0x1.8d824e0000000p-3}
}
, {{0x1.3891460000000p-3, -0x1.5d432a0000000p-4, 0x1.a4267e0000000p-4, 0x1.11c6400000000p-3, -0x1.5193320000000p-3, 0x1.887ca80000000p-4, 0x1.7a31600000000p-3, 0x1.546cde0000000p-3, 0x1.9a6da40000000p-3, -0x1.088f800000000p-3, 0x1.57d8060000000p-3, 0x1.8741a60000000p-3, -0x1.bff1ea0000000p-5, 0x1.1399c40000000p-6, 0x1.afb9c40000000p-3, 0x1.57b2340000000p-4}
, {0x1.11f63a0000000p-4, -0x1.537f100000000p-4, -0x1.25a8580000000p-3, -0x1.3042de0000000p-3, -0x1.e67c060000000p-4, 0x1.2837f60000000p-3, 0x1.d4614e0000000p-6, -0x1.498e520000000p-3, -0x1.c5b21e0000000p-4, -0x1.ee5b520000000p-7, 0x1.f7dca60000000p-4, -0x1.37c3c20000000p-6, -0x1.1652e80000000p-3, 0x1.96333a0000000p-4, 0x1.7931ca0000000p-7, 0x1.58a9220000000p-3}
, {-0x1.8024da0000000p-3, -0x1.a97dee0000000p-3, 0x1.5347e80000000p-3, -0x1.9b0f320000000p-6, 0x1.c903b40000000p-11, 0x1.cd4e9a0000000p-4, -0x1.2c54a20000000p-3, 0x1.4127860000000p-3, 0x1.080e9a0000000p-7, 0x1.2246ba0000000p-3, -0x1.6b1a140000000p-4, 0x1.4a5dc40000000p-3, -0x1.e8e0640000000p-6, -0x1.bbcb9c0000000p-6, 0x1.fb24700000000p-4, 0x1.3eaada0000000p-3}
}
, {{-0x1.7f9cea0000000p-3, -0x1.1f2a020000000p-5, 0x1.6b7d360000000p-3, 0x1.1a17640000000p-6, -0x1.6422f40000000p-3, -0x1.10c2e40000000p-4, -0x1.788d120000000p-3, 0x1.b974580000000p-7, 0x1.2acb060000000p-3, 0x1.2bd9420000000p-4, 0x1.5328ea0000000p-3, -0x1.56d95e0000000p-3, -0x1.8c94bc0000000p-3, -0x1.d31ce80000000p-5, 0x1.1ac1980000000p-5, 0x1.57eacc0000000p-4}
, {-0x1.d4587a0000000p-4, -0x1.45fd4a0000000p-3, -0x1.d4cdf80000000p-4, 0x1.b047680000000p-4, -0x1.58b20c0000000p-3, -0x1.817c780000000p-3, -0x1.211b440000000p-3, -0x1.4faa5e0000000p-3, -0x1.943a040000000p-4, 0x1.47af9a0000000p-3, 0x1.4d45ca0000000p-3, 0x1.914a900000000p-3, -0x1.1d9ef00000000p-4, 0x1.9b523e0000000p-5, -0x1.e7d41a0000000p-4, 0x1.a27a3c0000000p-3}
, {-0x1.6637300000000p-3, -0x1.3ed0840000000p-5, -0x1.56c83e0000000p-3, 0x1.1706160000000p-3, -0x1.40adaa0000000p-3, -0x1.5be80c0000000p-5, -0x1.5c3bba0000000p-3, -0x1.83ddc00000000p-3, 0x1.3c06900000000p-4, -0x1.2c69020000000p-3, 0x1.53594e0000000p-6, -0x1.5755400000000p-5, 0x1.38280a0000000p-6, 0x1.d9dfb40000000p-4, 0x1.15915c0000000p-4, -0x1.1b3a260000000p-5}
}
, {{0x1.f003e80000000p-9, 0x1.3745640000000p-3, -0x1.1456fa0000000p-3, -0x1.93bb740000000p-5, -0x1.357ff40000000p-3, 0x1.9458740000000p-3, -0x1.5701960000000p-3, 0x1.4570140000000p-10, -0x1.7240d80000000p-3, 0x1.65234c0000000p-3, -0x1.707e960000000p-3, -0x1.b625ce0000000p-4, 0x1.25d6a80000000p-3, -0x1.5aac540000000p-3, -0x1.483c2e0000000p-4, -0x1.ee3f220000000p-4}
, {-0x1.23ebcc0000000p-3, -0x1.5665280000000p-7, -0x1.7e9c3a0000000p-3, 0x1.471cac0000000p-3, -0x1.fb84480000000p-9, -0x1.33b1000000000p-5, 0x1.49d5e40000000p-3, -0x1.b2044c0000000p-4, -0x1.139b820000000p-4, -0x1.162cee0000000p-3, -0x1.3f8e580000000p-3, -0x1.679ec00000000p-3, 0x1.1869760000000p-3, 0x1.3330b60000000p-4, -0x1.d1a6d60000000p-4, 0x1.2578a80000000p-3}
, {-0x1.18dd9a0000000p-4, 0x1.6dd23a0000000p-3, -0x1.cb8e580000000p-4, 0x1.e159340000000p-4, 0x1.ba09b60000000p-4, 0x1.140ee00000000p-3, 0x1.037fa40000000p-4, -0x1.663b520000000p-5, -0x1.450d1e0000000p-3, -0x1.7f0a4a0000000p-4, -0x1.5736520000000p-5, -0x1.3cc8dc0000000p-3, -0x1.8f2cb00000000p-3, 0x1.d9652c0000000p-5, -0x1.17524c0000000p-3, 0x1.8ec6fa0000000p-4}
}
, {{0x1.0d3baa0000000p-5, -0x1.114c840000000p-3, -0x1.200bd00000000p-3, 0x1.30ce640000000p-5, 0x1.4d79340000000p-5, 0x1.9905d00000000p-11, -0x1.63ca2a0000000p-7, -0x1.29925e0000000p-3, 0x1.3affe00000000p-3, -0x1.23fe020000000p-3, -0x1.9036160000000p-3, -0x1.bbd24c0000000p-4, 0x1.700ed40000000p-5, 0x1.c5285c0000000p-4, -0x1.4be27e0000000p-3, -0x1.c1484e0000000p-4}
, {-0x1.0b2d9c0000000p-4, -0x1.30d0cc0000000p-3, 0x1.284e700000000p-3, 0x1.2d885e0000000p-4, -0x1.b7eba00000000p-3, 0x1.6768400000000p-4, 0x1.1c929e0000000p-3, 0x1.5281300000000p-6, 0x1.dc69f40000000p-5, -0x1.7c42660000000p-3, 0x1.7073e00000000p-4, -0x1.6fb7d80000000p-3, -0x1.190f280000000p-4, -0x1.9767ca0000000p-5, -0x1.ed5a8c0000000p-4, -0x1.905b220000000p-3}
, {-0x1.028fbc0000000p-3, -0x1.e0b3da0000000p-6, -0x1.82638a0000000p-3, -0x1.88a5ea0000000p-4, -0x1.dbe8100000000p-3, -0x1.5789960000000p-3, 0x1.6c140c0000000p-3, -0x1.2f5d8c0000000p-5, -0x1.9253980000000p-4, 0x1.00bdcc0000000p-6, 0x1.6487ce0000000p-5, 0x1.0e9cb80000000p-4, 0x1.891b8a0000000p-3, -0x1.6a969a0000000p-3, 0x1.0461d80000000p-3, -0x1.84648a0000000p-3}
}
, {{-0x1.7441560000000p-4, -0x1.f0dcc40000000p-4, 0x1.78a4720000000p-5, -0x1.9293580000000p-4, -0x1.938db40000000p-3, 0x1.6898260000000p-4, -0x1.a6aea00000000p-4, 0x1.9f005e0000000p-3, 0x1.41d4380000000p-3, -0x1.4ff4f20000000p-3, -0x1.1943240000000p-4, -0x1.6115020000000p-4, -0x1.1eeed00000000p-5, 0x1.d1eb340000000p-5, 0x1.45bd180000000p-4, -0x1.8aa6c40000000p-3}
, {-0x1.a722d60000000p-4, 0x1.6b960c0000000p-9, -0x1.9cd14a0000000p-4, 0x1.1f4cac0000000p-3, 0x1.2528a40000000p-3, -0x1.e8fc7c0000000p-10, 0x1.d1c9c80000000p-4, 0x1.19bdea0000000p-3, -0x1.d51d680000000p-7, 0x1.a99b4e0000000p-5, 0x1.d76cd80000000p-5, 0x1.3f231c0000000p-3, 0x1.476e3e0000000p-7, -0x1.529de20000000p-3, 0x1.143d080000000p-4, 0x1.e25aaa0000000p-5}
, {0x1.1c02980000000p-5, 0x1.07a8740000000p-5, 0x1.1e27a80000000p-3, -0x1.2a58040000000p-3, -0x1.7207220000000p-4, -0x1.b12d340000000p-7, 0x1.fbe67c0000000p-8, 0x1.80f6c00000000p-5, -0x1.d4ff4e0000000p-4, -0x1.a1090c0000000p-3, -0x1.a4e06a0000000p-6, 0x1.05a3b00000000p-4, 0x1.6e7bc00000000p-3, 0x1.9df5120000000p-3, -0x1.1922e40000000p-5, -0x1.34e74a0000000p-3}
}
, {{0x1.efdf240000000p-6, -0x1.99abd60000000p-6, -0x1.4bea3e0000000p-5, -0x1.2a6a820000000p-3, -0x1.b12eb80000000p-4, -0x1.05dfd40000000p-3, -0x1.1f6d2a0000000p-3, 0x1.43a6f80000000p-4, -0x1.5e473c0000000p-3, -0x1.0e7bfc0000000p-3, -0x1.2f81fa0000000p-3, 0x1.f0f9a60000000p-4, 0x1.afddfe0000000p-4, 0x1.fd025a0000000p-5, 0x1.90c7de0000000p-5, -0x1.e1e7520000000p-4}
, {0x1.5fcff00000000p-3, 0x1.6cfcf80000000p-3, -0x1.a909fa0000000p-5, 0x1.109b2c0000000p-4, 0x1.4db4620000000p-5, 0x1.6c20d80000000p-7, 0x1.74d95a0000000p-3, -0x1.cadfce0000000p-4, 0x1.190c240000000p-4, 0x1.0b3f480000000p-3, -0x1.53571a0000000p-3, 0x1.2abeba0000000p-3, 0x1.072d2c0000000p-3, -0x1.31b3fe0000000p-3, -0x1.a3fffe0000000p-4, -0x1.239b3e0000000p-3}
, {-0x1.4844080000000p-3, 0x1.3eb25e0000000p-3, 0x1.d9df6e0000000p-10, 0x1.e938040000000p-4, -0x1.a0ad400000000p-3, 0x1.7d78b40000000p-3, 0x1.5b06d40000000p-5, 0x1.b709820000000p-5, 0x1.6d9c2e0000000p-4, 0x1.2ae1000000000p-3, 0x1.42c7b00000000p-3, -0x1.499dac0000000p-4, 0x1.4607fa0000000p-3, -0x1.656f9e0000000p-6, -0x1.3a13e20000000p-4, -0x1.8c0f7e0000000p-3}
}
, {{-0x1.e8edfc0000000p-4, 0x1.a3e9820000000p-3, -0x1.5b1c740000000p-3, -0x1.5064b20000000p-3, 0x1.f0da320000000p-4, -0x1.2fbc840000000p-3, -0x1.6d22100000000p-3, 0x1.dc6f420000000p-4, 0x1.637ab80000000p-10, 0x1.2a784c0000000p-5, -0x1.841bda0000000p-3, -0x1.50684e0000000p-4, 0x1.0accd40000000p-3, 0x1.24e31e0000000p-3, -0x1.6398a00000000p-3, 0x1.ee30c80000000p-4}
, {0x1.874ab60000000p-3, 0x1.0c9cb60000000p-3, 0x1.528bd60000000p-5, 0x1.612fee0000000p-3, -0x1.3397d60000000p-4, 0x1.f6ce320000000p-8, -0x1.072d500000000p-4, -0x1.2533680000000p-5, 0x1.0ad34a0000000p-3, -0x1.7290a60000000p-4, -0x1.5afd200000000p-3, -0x1.970c740000000p-3, 0x1.b1d5360000000p-4, 0x1.aea6040000000p-5, -0x1.79b4600000000p-3, 0x1.cd098c0000000p-4}
, {-0x1.3a313c0000000p-3, -0x1.f5eddc0000000p-4, 0x1.89c9da0000000p-5, -0x1.41476e0000000p-3, -0x1.82ded80000000p-3, -0x1.503d080000000p-6, -0x1.7c9c600000000p-5, 0x1.fafc640000000p-5, 0x1.72a5e80000000p-3, 0x1.28e2d00000000p-3, 0x1.897fce0000000p-8, 0x1.15a2ea0000000p-5, 0x1.41c13a0000000p-4, 0x1.04d2a00000000p-4, 0x1.977b860000000p-3, 0x1.25dac00000000p-5}
}
, {{-0x1.2445480000000p-3, -0x1.5929cc0000000p-3, -0x1.72b42a0000000p-4, 0x1.de30820000000p-4, -0x1.fb84cc0000000p-4, -0x1.8b2c420000000p-4, 0x1.601e220000000p-3, 0x1.433b0c0000000p-6, -0x1.37ae3c0000000p-3, -0x1.8d89500000000p-5, -0x1.11e68a0000000p-4, -0x1.e4ddfc0000000p-5, -0x1.3cb1280000000p-3, -0x1.c2c7c20000000p-5, -0x1.5e8afa0000000p-6, 0x1.ebbb880000000p-4}
, {0x1.4f525e0000000p-4, 0x1.eea9da0000000p-4, 0x1.e531be0000000p-5, -0x1.d5ae020000000p-4, 0x1.48e7d00000000p-5, 0x1.9be2b00000000p-6, -0x1.fc4ae00000000p-6, 0x1.194d460000000p-3, 0x1.d7f4c20000000p-3, -0x1.ddc4700000000p-4, -0x1.502f5e0000000p-3, -0x1.87fc7a0000000p-3, 0x1.15b1b00000000p-4, 0x1.bb07080000000p-4, -0x1.cba7920000000p-4, -0x1.4da5520000000p-3}
, {0x1.31d7ea0000000p-3, -0x1.7e842c0000000p-3, -0x1.7745540000000p-4, 0x1.aa4ba40000000p-4, -0x1.51e9140000000p-4, -0x1.202b5c0000000p-3, 0x1.70cc360000000p-3, 0x1.3549060000000p-4, -0x1.2ad8880000000p-7, 0x1.c7d2f20000000p-3, -0x1.a3bda60000000p-4, -0x1.31f41e0000000p-4, 0x1.d369f80000000p-4, 0x1.1a65f20000000p-3, 0x1.f8e1900000000p-4, 0x1.1aeaba0000000p-4}
}
, {{0x1.f09f3c0000000p-4, 0x1.6f9e9c0000000p-4, -0x1.4baf520000000p-3, 0x1.5b4d020000000p-3, 0x1.2648c60000000p-4, -0x1.1d759a0000000p-3, 0x1.00be9e0000000p-7, -0x1.0e8fb80000000p-4, -0x1.a65abe0000000p-4, -0x1.3a103c0000000p-6, -0x1.7d3aee0000000p-3, 0x1.2220a20000000p-5, 0x1.f488a20000000p-7, -0x1.c587c00000000p-6, 0x1.d13f560000000p-7, -0x1.71ec4c0000000p-6}
, {-0x1.cbbd300000000p-7, 0x1.5150c20000000p-3, 0x1.917fce0000000p-3, 0x1.bdecfa0000000p-3, -0x1.8e67f40000000p-3, -0x1.42d50a0000000p-3, 0x1.1efdd80000000p-4, 0x1.717ad60000000p-3, 0x1.3ef7760000000p-3, -0x1.41175e0000000p-3, 0x1.368b860000000p-6, 0x1.b253e40000000p-5, -0x1.7f3a1e0000000p-3, -0x1.5cd40a0000000p-3, 0x1.2df1a60000000p-5, -0x1.0388140000000p-4}
, {0x1.15ed400000000p-3, 0x1.90b5320000000p-3, -0x1.ab0f380000000p-4, -0x1.3120740000000p-5, -0x1.67599a0000000p-3, 0x1.724eba0000000p-4, -0x1.66eef40000000p-5, 0x1.7e01a80000000p-3, 0x1.4f0c940000000p-4, -0x1.52f72c0000000p-3, -0x1.be76dc0000000p-8, -0x1.d6f2d20000000p-7, -0x1.9f87060000000p-4, 0x1.7527c40000000p-4, -0x1.a876800000000p-4, -0x1.3c39180000000p-3}
}
, {{-0x1.a408180000000p-3, 0x1.2c1eb80000000p-3, -0x1.59f7fc0000000p-7, -0x1.58e3aa0000000p-6, 0x1.0e964c0000000p-3, 0x1.5734220000000p-7, 0x1.0fb31c0000000p-4, -0x1.e129ec0000000p-4, -0x1.60764a0000000p-3, -0x1.07c5ca0000000p-3, 0x1.0b08460000000p-3, 0x1.3860f40000000p-6, 0x1.0a262e0000000p-4, -0x1.34ceea0000000p-4, 0x1.652cba0000000p-3, -0x1.91eab40000000p-3}
, {0x1.e5f4580000000p-7, -0x1.6a39e80000000p-3, -0x1.1109de0000000p-3, -0x1.3c4b5a0000000p-3, 0x1.6251060000000p-3, -0x1.14ad820000000p-4, 0x1.0271e60000000p-3, -0x1.39049c0000000p-3, 0x1.8e2c8a0000000p-5, -0x1.3f5de20000000p-7, -0x1.652d6e0000000p-3, -0x1.303f9c0000000p-4, 0x1.1f982a0000000p-5, 0x1.ccfbf00000000p-4, -0x1.eb842c0000000p-4, -0x1.90aca20000000p-3}
, {0x1.95a3ac0000000p-4, 0x1.29f5720000000p-3, 0x1.84d9aa0000000p-4, 0x1.4dfe060000000p-3, -0x1.a994f00000000p-4, 0x1.ae507c0000000p-4, 0x1.5af26a0000000p-3, 0x1.9991700000000p-4, 0x1.472c1c0000000p-4, -0x1.c45db20000000p-6, -0x1.0fd5260000000p-7, 0x1.365fe00000000p-6, -0x1.1fd8a00000000p-6, 0x1.56232c0000000p-3, -0x1.6ff66c0000000p-4, 0x1.123d740000000p-5}
}
, {{0x1.f33dee0000000p-7, -0x1.144a3e0000000p-8, 0x1.18d9ae0000000p-8, -0x1.c4d2ea0000000p-4, 0x1.218d020000000p-5, -0x1.1776920000000p-3, -0x1.2612a20000000p-3, -0x1.36731a0000000p-6, 0x1.38fe560000000p-5, -0x1.1306ca0000000p-3, 0x1.f466ca0000000p-5, -0x1.fe41ac0000000p-6, 0x1.07dc680000000p-3, 0x1.b24cfe0000000p-5, -0x1.35a3560000000p-3, -0x1.a6e67e0000000p-3}
, {0x1.d921400000000p-4, 0x1.2a0c040000000p-3, -0x1.86061c0000000p-8, 0x1.0a55fe0000000p-5, 0x1.565e4e0000000p-7, -0x1.0ec2760000000p-5, -0x1.07eae40000000p-3, -0x1.bffb140000000p-4, 0x1.f7c55e0000000p-4, 0x1.eb39e40000000p-4, 0x1.3f53ba0000000p-3, 0x1.573d320000000p-3, -0x1.5ad5d40000000p-4, -0x1.1f140e0000000p-9, -0x1.ac1ec40000000p-4, -0x1.0dc0be0000000p-3}
, {0x1.4240760000000p-3, 0x1.4dd4f00000000p-5, -0x1.645d700000000p-3, -0x1.cf35bc0000000p-3, 0x1.ebf3d40000000p-4, -0x1.0e42600000000p-3, 0x1.dbec6e0000000p-6, 0x1.ecf5fc0000000p-5, -0x1.2f90880000000p-4, 0x1.7b0ecc0000000p-3, 0x1.13991c0000000p-5, -0x1.856aae0000000p-5, 0x1.6df1840000000p-3, -0x1.612b9c0000000p-5, 0x1.8a41440000000p-3, 0x1.dec5f60000000p-4}
}
, {{-0x1.c6d3140000000p-4, 0x1.67da9e0000000p-3, 0x1.5d13ea0000000p-3, -0x1.661c780000000p-3, 0x1.1d84900000000p-6, -0x1.8f12e80000000p-4, 0x1.6d8d300000000p-5, -0x1.d97e040000000p-4, -0x1.76953e0000000p-4, 0x1.8840920000000p-3, -0x1.00bafe0000000p-4, -0x1.65b27e0000000p-3, 0x1.64307e0000000p-3, -0x1.d32ed80000000p-4, -0x1.6e42260000000p-3, -0x1.d412460000000p-4}
, {-0x1.cb035e0000000p-8, 0x1.1f11a80000000p-3, 0x1.4f00d00000000p-3, 0x1.904a9a0000000p-3, 0x1.705f580000000p-3, -0x1.a271240000000p-5, -0x1.c54ebc0000000p-5, -0x1.cea6520000000p-4, 0x1.020b6c0000000p-5, -0x1.92cbe20000000p-4, 0x1.20ca3e0000000p-3, -0x1.761ddc0000000p-3, 0x1.6108560000000p-5, 0x1.46f8960000000p-5, 0x1.cf960a0000000p-4, 0x1.3308ea0000000p-3}
, {0x1.5a552a0000000p-3, -0x1.81eb940000000p-4, -0x1.974dbe0000000p-3, -0x1.ab5f9e0000000p-3, 0x1.95bcd00000000p-3, 0x1.21a51c0000000p-3, 0x1.3fbeae0000000p-6, 0x1.614d0a0000000p-3, -0x1.d879000000000p-4, 0x1.c8499c0000000p-5, 0x1.8d20dc0000000p-3, 0x1.67cfca0000000p-3, -0x1.4c05bc0000000p-4, 0x1.a125720000000p-4, 0x1.f46ade0000000p-4, 0x1.fdf1440000000p-4}
}
, {{0x1.29d9360000000p-3, -0x1.57ea040000000p-4, -0x1.96547c0000000p-9, -0x1.1552440000000p-3, -0x1.a3ff260000000p-3, 0x1.d5129e0000000p-7, -0x1.121bb20000000p-5, -0x1.3bfb8e0000000p-3, 0x1.8eff820000000p-3, 0x1.46ec8e0000000p-4, -0x1.8a458a0000000p-3, 0x1.1709540000000p-3, -0x1.7164ac0000000p-4, 0x1.8cd4b00000000p-3, -0x1.6de0480000000p-4, 0x1.e059fc0000000p-5}
, {-0x1.2fe17c0000000p-5, 0x1.7454240000000p-3, -0x1.cdc9a80000000p-7, 0x1.4ed93a0000000p-3, -0x1.eadffc0000000p-4, 0x1.3fefaa0000000p-3, -0x1.eaecf80000000p-5, 0x1.1d44ec0000000p-4, -0x1.3ca1080000000p-3, 0x1.5a21c00000000p-4, 0x1.7ee0e00000000p-9, 0x1.4cc62a0000000p-4, 0x1.42c58c0000000p-3, 0x1.339b7c0000000p-3, -0x1.4466fa0000000p-4, 0x1.1f00e20000000p-3}
, {0x1.28b7920000000p-5, -0x1.7c83ec0000000p-4, -0x1.c8c61c0000000p-5, 0x1.329d460000000p-4, -0x1.94cd3e0000000p-4, -0x1.7935120000000p-5, 0x1.49ddb80000000p-4, 0x1.1bb4ba0000000p-4, 0x1.68fab20000000p-3, -0x1.5302ba0000000p-4, -0x1.166b520000000p-3, 0x1.6e220a0000000p-3, -0x1.46f82a0000000p-4, -0x1.0dad200000000p-4, -0x1.694de00000000p-3, -0x1.7c922a0000000p-6}
}
}
;

#undef INPUT_CHANNELS
#undef CONV_FILTERS
#undef CONV_KERNEL_SIZE
#undef CONV_GROUPS
/**
  ******************************************************************************
  * @file    maxpool1d.hh
  * @author  Pierre-Emmanuel Novac <penovac@unice.fr>, LEAT, CNRS, Université Côte d'Azur, France
  * @version V2.0
  * @date    24 january 2023
  * @brief   Template generating plain C code for the implementation of Convolutional Neural Networks on MCU
  */

#ifndef _MAX_POOLING1D_63_H_
#define _MAX_POOLING1D_63_H_

#ifndef SINGLE_FILE
#include "number.h"
#endif

#define INPUT_CHANNELS  32
#define INPUT_SAMPLES   207
#define POOL_SIZE       4
#define POOL_STRIDE     2
#define POOL_PAD        0 // Unsupported
#define POOL_LENGTH	    ( ( (INPUT_SAMPLES - POOL_SIZE + (2*POOL_PAD) ) / POOL_STRIDE ) + 1 )

typedef float max_pooling1d_63_output_type[POOL_LENGTH][INPUT_CHANNELS];

#if 0
void max_pooling1d_63(
  const number_t input[INPUT_SAMPLES][INPUT_CHANNELS], 	    // IN
  number_t output[POOL_LENGTH][INPUT_CHANNELS]); 	// OUT
#endif

#undef INPUT_CHANNELS  
#undef INPUT_SAMPLES
#undef POOL_SIZE
#undef POOL_STRIDE
#undef POOL_PAD
#undef POOL_LENGTH

#endif//_MAX_POOLING1D_63_H_
/**
  ******************************************************************************
  * @file    maxpool.cc
  * @author  Pierre-Emmanuel Novac <penovac@unice.fr>, LEAT, CNRS, Université Côte d'Azur, France
  * @version 1.0.0
  * @date    24 march 2020
  * @brief   Template generating plain C code for the implementation of Convolutional Neural Networks on MCU
  */

#ifndef SINGLE_FILE
#include "max_pooling1d_63.h"
#include "number.h"
#endif

#ifdef WITH_CMSIS_NN
#include "arm_nnfunctions.h"
#endif

#define INPUT_CHANNELS  32
#define INPUT_SAMPLES   207
#define POOL_SIZE       4
#define POOL_STRIDE     2
#define POOL_PAD        0 // Unsupported
#define POOL_LENGTH	    ( ( (INPUT_SAMPLES - POOL_SIZE + (2*POOL_PAD) ) / POOL_STRIDE ) + 1 )

#define ACTIVATION_LINEAR

// For fixed point quantization
#define INPUT_SCALE_FACTOR 0
#define OUTPUT_SCALE_FACTOR 0
#define OUTPUT_ROUND_MODE ROUND_MODE_NONE
#define NUMBER_T float
#define LONG_NUMBER_T float


static inline void max_pooling1d_63(
  const NUMBER_T input[INPUT_SAMPLES][INPUT_CHANNELS], 	    // IN
  NUMBER_T output[POOL_LENGTH][INPUT_CHANNELS]) {	// OUT

  unsigned short pos_x, k; 	// loop indexes for output volume
  unsigned int x;
  static LONG_NUMBER_T max[INPUT_CHANNELS];

  for (pos_x = 0; pos_x < POOL_LENGTH; pos_x++) {
    for (k = 0; k < INPUT_CHANNELS; k++) {
#ifdef ACTIVATION_LINEAR
      max[k] = input[pos_x*POOL_STRIDE][k];
      x = 1;
#elif defined(ACTIVATION_RELU)
      max[k] = 0;
      x = 0;
#else
#error "Unsupported activation function"
#endif
    }

    for (; x < POOL_SIZE; x++) {
      for (k = 0; k < INPUT_CHANNELS; k++) {
        if (max[k] < input[(pos_x * POOL_STRIDE) + x][k])
          max[k] = input[(pos_x * POOL_STRIDE) + x][k];
      }
    }

    for (k = 0; k < INPUT_CHANNELS; k++) {
      output[pos_x][k] = scale_and_clamp_to(NUMBER_T, max[k], INPUT_SCALE_FACTOR - OUTPUT_SCALE_FACTOR, OUTPUT_ROUND_MODE);
    }
  }
}

#undef INPUT_CHANNELS  
#undef INPUT_SAMPLES
#undef POOL_SIZE
#undef POOL_STRIDE
#undef POOL_PAD
#undef POOL_LENGTH
#undef ACTIVATION_LINEAR
#undef INPUT_SCALE_FACTOR
#undef OUTPUT_SCALE_FACTOR
#undef NUMBER_T
#undef LONG_NUMBER_T
/**
  ******************************************************************************
  * @file    conv1d.hh
  * @author  Pierre-Emmanuel Novac <penovac@unice.fr>, LEAT, CNRS, Université Côte d'Azur, France
  * @version V2.0
  * @date    24 january 2023
  * @brief   Template generating plain C code for the implementation of Convolutional Neural Networks on MCU
  */

#ifndef _CONV1D_110_H_
#define _CONV1D_110_H_

#ifndef SINGLE_FILE
#include "number.h"
#endif

#define INPUT_CHANNELS      32
#define INPUT_SAMPLES       102
#define CONV_FILTERS        64
#define CONV_KERNEL_SIZE    3
#define CONV_STRIDE         1

#define ZEROPADDING_LEFT    0
#define ZEROPADDING_RIGHT   0

#define CONV_OUTSAMPLES     ( ( (INPUT_SAMPLES - CONV_KERNEL_SIZE + ZEROPADDING_LEFT + ZEROPADDING_RIGHT) / CONV_STRIDE ) + 1 )

typedef float conv1d_110_output_type[CONV_OUTSAMPLES][CONV_FILTERS];

#if 0
void conv1d_110(
  const number_t input[INPUT_SAMPLES][INPUT_CHANNELS],                    // IN
  const number_t kernel[CONV_FILTERS][CONV_KERNEL_SIZE][INPUT_CHANNELS],  // IN

  const number_t bias[CONV_FILTERS],						                          // IN

  number_t output[CONV_OUTSAMPLES][CONV_FILTERS]);                       // OUT
#endif

#undef INPUT_CHANNELS
#undef INPUT_SAMPLES
#undef CONV_FILTERS
#undef CONV_KERNEL_SIZE
#undef CONV_STRIDE
#undef ZEROPADDING_LEFT
#undef ZEROPADDING_RIGHT
#undef CONV_OUTSAMPLES

#endif//_CONV1D_110_H_
/**
  ******************************************************************************
  * @file    conv.cc
  * @author  Sébastien Bilavarn, LEAT, CNRS, Université Côte d'Azur, France
  * @author  Pierre-Emmanuel Novac <penovac@unice.fr>, LEAT, CNRS, Université Côte d'Azur, France
  * @version V2.0
  * @date    24 march 2020
  * @brief   Template generating plain C code for the implementation of Convolutional Neural Networks on MCU
  */

#ifndef SINGLE_FILE
#include "conv1d_110.h"
#include "number.h"
#endif

#ifdef WITH_CMSIS_NN
#include "arm_nnfunctions.h"
#elif defined(WITH_NMSIS_NN)
#include "riscv_nnfunctions.h"
#endif

#define INPUT_CHANNELS      32
#define INPUT_SAMPLES       102
#define CONV_FILTERS        64
#define CONV_KERNEL_SIZE    3
#define CONV_STRIDE         1
#define CONV_GROUPS         1
#define CHANNELS_PER_GROUP  (INPUT_CHANNELS / CONV_GROUPS)
#define FILTERS_PER_GROUP   (CONV_FILTERS / CONV_GROUPS)

#define ZEROPADDING_LEFT    0
#define ZEROPADDING_RIGHT   0

#define CONV_OUTSAMPLES     ( ( (INPUT_SAMPLES - CONV_KERNEL_SIZE + ZEROPADDING_LEFT + ZEROPADDING_RIGHT) / CONV_STRIDE ) + 1 )

#define ACTIVATION_RELU

// For fixed point quantization
#define WEIGHTS_SCALE_FACTOR 0
#define BIASES_SCALE_FACTOR 0
#define TMP_SCALE_FACTOR 0
#define INPUT_SCALE_FACTOR 0
#define OUTPUT_SCALE_FACTOR 0
#define OUTPUT_ROUND_MODE ROUND_MODE_NONE
#define NUMBER_T float
#define LONG_NUMBER_T float


static inline void conv1d_110(
  const NUMBER_T input[INPUT_SAMPLES][INPUT_CHANNELS],                    // IN
  const NUMBER_T kernel[CONV_FILTERS][CONV_KERNEL_SIZE][INPUT_CHANNELS / CONV_GROUPS],  // IN

  const NUMBER_T bias[CONV_FILTERS],						                          // IN

  NUMBER_T output[CONV_OUTSAMPLES][CONV_FILTERS]) {                       // OUT

#if !defined(WITH_CMSIS_NN) && !defined(WITH_NMSIS_NN)
  unsigned short pos_x, z, k; 	// loop indexes for output volume
  unsigned short x;
  int input_x;
  LONG_NUMBER_T output_acc;

  for (pos_x = 0; pos_x < CONV_OUTSAMPLES; pos_x++) { 
    for (k = 0; k < CONV_FILTERS; k++) { 
      output_acc = 0;

      for (x = 0; x < CONV_KERNEL_SIZE; x++) {
        input_x = pos_x * CONV_STRIDE - ZEROPADDING_LEFT + x;

        if (input_x >= 0 && input_x < INPUT_SAMPLES) { // ZeroPadding1D
          for (z = 0; z < INPUT_CHANNELS / CONV_GROUPS; z++) {
            output_acc += (LONG_NUMBER_T)input[input_x][z + (k / FILTERS_PER_GROUP) * CHANNELS_PER_GROUP] * (LONG_NUMBER_T)kernel[k][x][z];
          }
        }
      }

    // Scale for possible additional precision of bias
    output_acc = scale(NUMBER_T, output_acc, WEIGHTS_SCALE_FACTOR - TMP_SCALE_FACTOR, OUTPUT_ROUND_MODE);

    // Scale bias to match accumulator
    output_acc += scale(NUMBER_T, (LONG_NUMBER_T)bias[k], BIASES_SCALE_FACTOR - TMP_SCALE_FACTOR - INPUT_SCALE_FACTOR, OUTPUT_ROUND_MODE);

      
#ifdef ACTIVATION_LINEAR
      output[pos_x][k] = scale_and_clamp_to(NUMBER_T, output_acc, INPUT_SCALE_FACTOR + TMP_SCALE_FACTOR - OUTPUT_SCALE_FACTOR, OUTPUT_ROUND_MODE);
#elif defined(ACTIVATION_RELU) || defined(ACTIVATION_RELU6)
      // Activation function: ReLU
      if (output_acc < 0) {
        output[pos_x][k] = 0;
      } else {
#if defined(ACTIVATION_RELU6)
        if (output_acc > scale(NUMBER_T, 6, -(INPUT_SCALE_FACTOR + TMP_SCALE_FACTOR), OUTPUT_ROUND_MODE)) {
          output_acc = scale(NUMBER_T, 6, -(INPUT_SCALE_FACTOR + TMP_SCALE_FACTOR), OUTPUT_ROUND_MODE);
        }
#endif
        output[pos_x][k] = scale_and_clamp_to(NUMBER_T, output_acc, INPUT_SCALE_FACTOR + TMP_SCALE_FACTOR - OUTPUT_SCALE_FACTOR, OUTPUT_ROUND_MODE);
      }
#else
#error "Unsupported activation function"
#endif
    }
  }

#else

#if BIASES_SCALE_FACTOR > WEIGHTS_SCALE_FACTOR
#error "CMSIS-NN does not support BIASES_SCALE_FACTOR larger than WEIGHTS_SCALE_FACTOR"
#endif

#error "Data type unsupported by CMSIS-NN"

#endif
}

#undef INPUT_CHANNELS
#undef INPUT_SAMPLES
#undef CONV_FILTERS
#undef CONV_KERNEL_SIZE
#undef CONV_STRIDE
#undef CONV_GROUPS
#undef CHANNELS_PER_GROUP
#undef FILTERS_PER_GROUP
#undef ZEROPADDING_LEFT
#undef ZEROPADDING_RIGHT
#undef CONV_OUTSAMPLES
#undef ACTIVATION_RELU
#undef WEIGHTS_SCALE_FACTOR
#undef BIASES_SCALE_FACTOR
#undef TMP_SCALE_FACTOR
#undef INPUT_SCALE_FACTOR
#undef OUTPUT_SCALE_FACTOR
#undef NUMBER_T
#undef LONG_NUMBER_T
/**
  ******************************************************************************
